) 69960
( 69895
. 51497
; 39537
, 20313
" 19451
{ 19406
} 19406
= 16136
▁ 12238
public 8302
return 7130
String 6002
if 5787
new 5654
@ 4817
< 4584
> 4448
void 4039
this 3955
null 3908
get@@ 3685
+ 3366
int 3133
: 2964
0 2496
] 2479
[ 2458
Override 2346
final 2169
== 2159
set@@ 2040
- 1956
i 1828
1 1786
Exception 1736
!= 1553
throws 1494
static 1453
boolean 1443
false 1427
e 1425
List 1359
true 1238
class 1218
else 1213
for 1207
get 1187
! 1164
Id 1152
is@@ 1120
/ 1107
Context 1107
name 1087
result 1029
Name 1014
Object 1007
private 1003
Type 987
add 937
' 919
value 903
id 891
2 890
Map 890
Test 888
equals 862
to@@ 862
&& 837
context 829
? 804
test@@ 730
m@@ 712
catch 703
throw 700
create@@ 696
s 692
put 677
* 674
size 669
try 657
s@@ 652
assertEquals 649
length 643
a 626
append 623
R 617
File 613
Message 609
_ 606
toString 596
Class 589
System 587
super 584
body 579
my@@ 579
out 549
++ 542
NotNull 532
add@@ 522
Integer 520
type 520
Info 481
ArrayList 469
on@@ 469
other 463
protected 463
instanceof 462
Key 459
|| 458
Path 450
getName 442
key 442
Service 441
data 436
Config 435
println 432
file 427
Offset 424
T 420
IOException 415
Result 414
To@@ 406
offset 405
to 404
View 395
getString 395
Py@@ 390
I@@ 385
Builder 383
Data 381
Value 380
Manager 379
assertThat 379
sb 379
_@@ 376
org 375
byte 372
T@@ 370
message 366
case 364
new@@ 359
User 355
Node 352
Data@@ 349
In@@ 349
Provider 349
c 345
3 343
break 342
p 338
Factory 333
args 333
Event 332
Assert 329
apache 329
next@@ 329
sql@@ 328
string 328
t 328
x 328
Activity 327
Handler 326
item 325
l 323
-> 320
path 320
File@@ 318
State 315
float 314
Item 310
Set 308
builder 308
is 308
R@@ 307
Utils 304
in 303
% 302
isEmpty 302
With@@ 301
long 301
temp@@ 300
ID 299
M@@ 295
that 294
input 293
Properties 292
a@@ 291
expected 291
getClass 291
15@@ 290
msg 289
sql 288
Boolean 285
A@@ 284
assertTrue 283
response 283
error 281
Val 280
Client 279
\@@ 277
of 277
p@@ 277
while 277
className 276
ing@@ 276
request 275
v 275
Count 274
Options 274
j 272
thrift 272
Server 271
o 267
Request 266
Text 266
Converter 265
close 264
write@@ 259
NAME 258
assert@@ 258
isSet@@ 256
Object@@ 255
not 255
success 255
list 253
java 251
hashCode 250
text 250
For@@ 249
Instruction 249
mock@@ 249
Long 248
Query 248
r@@ 247
Response 246
the 246
AD@@ 245
Time 244
4 243
d@@ 242
current@@ 241
with@@ 241
HL7@@ 240
build@@ 240
flow 240
S@@ 239
d 238
Nullable 237
2@@ 235
f@@ 235
event 234
values 234
getInstance 233
activity 232
Button 231
find@@ 230
read@@ 230
getValue 229
le@@ 229
Size 228
Element 227
& 226
Spec 224
user 224
user@@ 223
entry 222
Util 221
f 221
Plan 220
op 220
title 220
Psi@@ 218
double 218
Action 217
b 215
getId 215
info 215
Fields 214
Expression 213
User@@ 213
result@@ 213
L 212
L@@ 212
Command 211
Log 211
Store 211
\n 211
able@@ 211
properties 210
Group 209
n 209
ret 209
set 209
On@@ 208
lastComparison 208
HashMap 207
Model 207
C@@ 206
List@@ 206
Property 206
Test@@ 206
index 206
rs 206
y 206
process@@ 205
r 205
Date 204
er@@ 204
obj 204
when 204
Server@@ 202
element 202
i@@ 202
start@@ 202
P@@ 201
StringBuilder 201
Configuration 200
Entry 200
Event@@ 199
PO@@ 199
com 199
E@@ 197
Seq@@ 197
actual 197
method 191
w@@ 190
file@@ 187
Sql@@ 186
Types 186
format 186
setText 185
log 184
t@@ 184
Collection 183
Error 182
Key@@ 182
create 182
view 182
Client@@ 181
Status 181
instruction 181
N@@ 180
g 180
Group@@ 179
Message@@ 179
Task@@ 179
remove 179
Position 178
next 178
Directory 177
Listener 177
b@@ 177
build 177
Task 176
data@@ 176
do@@ 176
session 176
task@@ 176
+= 175
5 175
contains 175
getMessage 175
10 174
PsiElement 174
extends 174
test 174
G@@ 173
start 173
valueOf 173
al@@ 172
Helper 171
Url 171
m 171
message@@ 171
IllegalArgumentException 170
map 170
node 170
Resource 169
Version 169
object 169
parent 169
Holder 168
E 167
Index 167
Template 167
variable 167
Bundle 166
From@@ 166
MR@@ 166
Image@@ 165
Job@@ 165
cur@@ 165
Parameters 164
javax 164
position 164
Config@@ 163
Method 163
Rest@@ 163
mock 163
swing 163
// 162
update@@ 162
4@@ 160
Intent 160
Session 160
Item@@ 159
ar@@ 159
load@@ 159
$ 158
Db@@ 158
Field 158
compareTo 158
struct 158
thrott@@ 158
Callback 157
client 157
Variable 156
execute 156
sub@@ 156
Table 155
Dialog 154
Names 153
Uri 153
field 153
Database 152
H@@ 152
Http@@ 152
Impl 151
Number 151
Process@@ 151
findViewById 151
ClassName 150
TC 150
connection 150
Class@@ 149
J@@ 149
graph 149
j@@ 149
target 149
Bytes 148
Case@@ 148
Index@@ 148
Rule 148
thenReturn 148
Statement 147
expected@@ 147
isEqualTo 147
k 147
Instance 146
Resource@@ 146
V@@ 146
in@@ 146
options 146
run 146
By@@ 145
RO@@ 145
logger 145
max@@ 145
Web@@ 144
filter 143
protocol 143
Cache 142
able 142
count 142
status 142
Id@@ 141
key@@ 141
query 141
Label 140
Request@@ 140
bytes 140
cursor 140
errCode 140
Node@@ 139
Settings 139
buffer 139
Stream 138
Visitor 137
angular@@ 137
Log@@ 136
Array 135
Component 135
URL 135
response@@ 135
has@@ 134
res 134
switch 134
Activity@@ 133
B@@ 133
Iterator 133
KEY 133
layout 133
mro 133
Entity 132
Fragment 132
buf 132
config 132
>= 130
Q@@ 130
T_@@ 130
ex 130
local@@ 130
Arrays 129
Async@@ 129
Condition@@ 129
Response@@ 129
first 129
Access@@ 128
Files 128
be 128
p_@@ 128
project 127
Stream@@ 126
Type@@ 126
ed@@ 126
g@@ 126
params 126
synchronized 126
Filter 125
Variable@@ 125
X@@ 125
delete@@ 125
on 125
setProperty 125
Optional 124
Update@@ 124
listener 124
scope 124
Auto@@ 123
address 123
getProperty 123
line 123
D@@ 122
Pattern 122
String@@ 122
X 122
width 122
Global@@ 121
Graph@@ 121
Math 121
New@@ 121
Panel 121
Ph@@ 121
end 121
image@@ 121
And@@ 120
Code 120
Utilities 120
continue 120
All@@ 119
BaseMessages 119
PKG 119
Re@@ 119
command 119
ctx 119
query@@ 119
1_@@ 118
Constants 118
Length 118
Repository@@ 118
block 118
n@@ 118
request@@ 118
IllegalStateException 117
Meta 117
Query@@ 117
U@@ 117
check@@ 117
model 117
put@@ 117
root 117
Collections 116
Function 116
Service@@ 116
Thread 116
Throttle@@ 116
Commit@@ 115
Text@@ 115
asList 115
assertNotNull 115
child 115
database@@ 115
http@@ 115
show@@ 115
source 115
use@@ 115
1" 114
Ad@@ 114
Mode 114
Offsets 114
conf 114
iprot 114
Queue@@ 113
SWT 113
Toast 113
index@@ 113
last@@ 113
state 113
target@@ 113
Value@@ 112
Y 112
map@@ 112
row 112
savedInstanceState 112
Metric@@ 111
Table@@ 111
debug 111
iterator 111
list@@ 111
verify@@ 111
Base@@ 110
Serializer 110
Set@@ 110
Tree 110
ast@@ 110
case@@ 110
getText 110
note@@ 110
un@@ 110
Base 109
Document 109
RuntimeException 109
content 109
curNode 109
sum 109
url 109
| 109
AND 108
Co@@ 108
O@@ 108
Select@@ 108
es@@ 108
matcher 108
As@@ 107
Date@@ 107
Output@@ 107
Physical@@ 107
id@@ 107
stream 107
01 106
Connection 106
Get@@ 106
first@@ 106
printStackTrace 106
txt@@ 106
u 106
8 105
Component@@ 105
Graph 105
Objects 105
Read@@ 105
co@@ 105
setEnabled 105
task 105
job@@ 104
output 104
16 103
C 103
Double 103
Flow 103
Store@@ 103
Sum 103
getKey 103
intent 103
l@@ 103
s_@@ 103
table@@ 103
Method@@ 102
ation@@ 102
entity 102
group@@ 102
should@@ 102
startOffset 102
Elastic@@ 101
eq 101
sample@@ 101
st 101
validate@@ 101
Location 100
c@@ 100
height 100
schemeField 100
time 100
2" 99
Property@@ 99
run@@ 99
util 99
3@@ 98
6 98
GroupLayout 98
Is@@ 98
Project 98
Summary 98
auto@@ 98
from 98
match 98
remove@@ 98
Empty@@ 97
F@@ 97
Load@@ 97
Principal@@ 97
Update 97
clear 97
code 97
req 97
w 97
write 97
D 96
Debug 96
Dialog@@ 96
Layout 96
Map@@ 96
api@@ 96
ce@@ 96
getDefault@@ 96
register@@ 96
tor@@ 96
Dir 95
Do@@ 95
No@@ 95
Principal 95
can@@ 95
getType 95
item@@ 95
parameters 95
re@@ 95
visit@@ 95
Format 94
Width 94
end@@ 94
getCurrent@@ 94
la@@ 94
save@@ 94
Default@@ 93
Not@@ 93
Operation 93
Rules 93
action 93
ed 93
interpreter@@ 93
Calendar 92
Header@@ 92
Manager@@ 92
N 92
Pool 92
Settings@@ 92
Write@@ 92
children 92
column 92
json 92
send@@ 92
table 92
x@@ 92
1@@ 91
Adapter 91
Attribute 91
Local@@ 91
and 91
authentication@@ 91
t_@@ 91
year 91
Authentication@@ 90
Container 90
Dao 90
Height 90
Info@@ 90
Mock@@ 90
My@@ 90
View@@ 90
default 90
endOffset 90
handle@@ 90
instance 90
io@@ 90
real@@ 90
update 90
Bounded@@ 89
Items 89
Msg 89
Name@@ 89
Order@@ 89
Read 89
Source 89
Target@@ 89
base@@ 89
getSize 89
image 89
Int@@ 88
Source@@ 88
TAG 88
game@@ 88
group 88
max 88
read 88
Editor 87
LOG 87
Partition@@ 87
as 87
it@@ 87
pos 87
Block 86
Color 86
Device 86
InputStream 86
Oper 86
SQLException 86
Sum@@ 86
date 86
default@@ 86
Header 85
History@@ 85
Keyword@@ 85
Maven@@ 85
Target 85
ence@@ 85
num@@ 85
resource@@ 85
... 84
7 84
Hub@@ 84
TF 84
URI 84
e@@ 84
getUser@@ 84
go 84
ing 84
it 84
psiElement 84
right@@ 84
y@@ 84
Address 83
FilePath 83
Geo@@ 83
MapReduce@@ 83
Mockito 83
Param 83
Queue 83
Strategy 83
Throwable 83
_name 83
configuration 83
output@@ 83
val 83
A 82
Context@@ 82
Creation@@ 82
Database@@ 82
If@@ 82
Preference 82
Resolver 82
Un@@ 82
VirtualFile 82
getActivity 82
old@@ 82
producer 82
resolve 82
v@@ 82
verify 82
All 81
I 81
State@@ 81
Token 81
app@@ 81
getC@@ 81
getContext 81
init@@ 81
onCreate 81
that_present_@@ 81
this_present_@@ 81
Channel 80
First@@ 80
Interpreter@@ 80
Max@@ 80
Pr@@ 80
Row 80
btn@@ 80
cache 80
call 80
clone 80
log@@ 80
sTo@@ 80
service@@ 80
Add@@ 79
EventHandler 79
Gen@@ 79
Mapper 79
Or@@ 79
Reader 79
Repository 79
Runnable 79
addComponent 79
db 79
http 79
parse@@ 79
show 79
the@@ 79
02 78
Instruction@@ 78
Of@@ 78
Pool@@ 78
SharedPreferences 78
api 78
err 78
trim 78
<= 77
Connection@@ 77
Creator 77
Cursor 77
Engine 77
HashSet 77
Predic@@ 77
^ 77
ate@@ 77
found 77
k@@ 77
runner 77
Call@@ 76
Description 76
Edge 76
External@@ 76
Metadata@@ 76
Null@@ 76
Remote@@ 76
SQL_@@ 76
Success 76
To 76
Window 76
addAll 76
callback 76
delete 76
doc 76
editor 76
elastic@@ 76
log4j 76
pre@@ 76
root@@ 76
split 76
txt 76
with 76
Bean 75
Create@@ 75
Margin 75
Results 75
TR 75
Variables 75
assertFalse 75
at@@ 75
h@@ 75
make@@ 75
parse 75
rep 75
substring 75
Bitmap@@ 74
Cache@@ 74
Cell@@ 74
Filter@@ 74
Loader 74
Material 74
Path@@ 74
Play@@ 74
System@@ 74
\\ 74
dialog 74
hasNext 74
init 74
links 74
os 74
php@@ 74
settings 74
startObject 74
u@@ 74
visitor 74
Batch@@ 73
Channel@@ 73
Import@@ 73
Level 73
Limit 73
Plan@@ 73
States 73
Status@@ 73
all@@ 73
array@@ 73
commit 73
description 73
endObject 73
exception 73
find 73
getAttribute 73
getR@@ 73
password 73
sigma 73
username 73
100 72
Byte 72
Edit@@ 72
Enabled 72
FileName 72
Matrix@@ 72
Shared@@ 72
Title 72
Values@@ 72
Wrapper 72
apply 72
from@@ 72
mt 72
parent@@ 72
rating 72
store 72
template 72
version 72
9 71
Dir@@ 71
Grid@@ 71
KEY_@@ 71
Non@@ 71
Schema 71
Sequence 71
Start 71
Var@@ 71
_S@@ 71
di@@ 71
o@@ 71
ordinal 71
random 71
startsWith 71
App@@ 70
Control@@ 70
DEFAULT_@@ 70
Generic@@ 70
Image 70
Parameter 70
Parser 70
Provider@@ 70
Reference 70
Simple@@ 70
Timestamp 70
containsKey 70
enabled 70
fb 70
incip@@ 70
ity@@ 70
lines 70
location 70
prime 70
short 70
source@@ 70
ACTION_@@ 69
Agent@@ 69
Command@@ 69
DTO 69
End@@ 69
Environment 69
Properties@@ 69
cluster 69
getRe@@ 69
menu 69
out@@ 69
player 69
ps@@ 69
resultSet 69
11 68
Biome@@ 68
Classes 68
Folder 68
MessageContext 68
OutputStream 68
Photo@@ 68
Void 68
Y@@ 68
at 68
client@@ 68
min 68
rect 68
str@@ 68
>> 67
Admin@@ 67
Api@@ 67
Assertions 67
Changed 67
Condition 67
Content@@ 67
ImmutableList 67
Run@@ 67
clazz 67
component 67
exists 67
getPath 67
go@@ 67
numberOf@@ 67
serializer 67
value@@ 67
Block@@ 66
Custom@@ 66
Execution@@ 66
Func@@ 66
Generator 66
Op@@ 66
Segment@@ 66
TYPE 66
TYPE_@@ 66
Values 66
ador 66
als 66
ar 66
commit@@ 66
copy@@ 66
fire@@ 66
geo@@ 66
second@@ 66
str 66
Content 65
Throw@@ 65
actual@@ 65
concat 65
getParent 65
oprot 65
schedule@@ 65
triple 65
ur@@ 65
Codec 64
Float 64
Json@@ 64
LOGGER 64
LocalDate 64
Logger 64
Pig@@ 64
Sdk@@ 64
Single@@ 64
Str 64
channel 64
cls 64
equalTo 64
getScheme 64
https 64
job 64
load 64
m_@@ 64
matrix 64
node@@ 64
resource 64
z@@ 64
Body 63
Column@@ 63
Conditions 63
Done 63
End 63
Http2@@ 63
Inputs 63
Messages 63
Of 63
Order 63
Record 63
Region 63
Search@@ 63
Sequence@@ 63
Sub@@ 63
all 63
arti@@ 63
as@@ 63
attributes 63
container 63
event@@ 63
fs 63
json@@ 63
lang 63
left 63
ms 63
ok 63
stat@@ 63
Buffer 62
Compiler@@ 62
Complete@@ 62
Descriptor 62
Editor@@ 62
Found 62
Mapping@@ 62
Metadata 62
PATH 62
Params 62
Policy 62
Saml@@ 62
Show 62
Template@@ 62
TextView 62
Triple 62
content@@ 62
getInt 62
parameter 62
provider 62
throw@@ 62
0L 61
Abstract@@ 61
Before 61
Entity@@ 61
FROM 61
Firewall@@ 61
Mock 61
Score@@ 61
The 61
Thumbnail 61
counter 61
fs@@ 61
getCache@@ 61
getL@@ 61
matches 61
sequence 61
st@@ 61
throwable 61
3" 60
ATION_@@ 60
Configuration@@ 60
Download@@ 60
Find@@ 60
Forec@@ 60
Identity@@ 60
MessageType 60
Option 60
Option@@ 60
Page 60
created 60
entrySet 60
filename 60
getNext@@ 60
header@@ 60
of@@ 60
q@@ 60
12 59
Blocks 59
Bluetooth@@ 59
Leaf 59
New 59
Office@@ 59
Out@@ 59
Script@@ 59
Servers 59
Statistics@@ 59
Unit 59
ance@@ 59
bundle 59
class@@ 59
es 59
fail 59
getData@@ 59
nextInt 59
pattern 59
"@@ 58
20@@ 58
Attributes 58
Check 58
Groups 58
Ids 58
Instance@@ 58
IsSet 58
ML@@ 58
Metrics 58
Parent 58
Pro@@ 58
Register@@ 58
StringUtil 58
UTF 58
Writer 58
args@@ 58
ce 58
getMax@@ 58
getRequest@@ 58
handler 58
or 58
property 58
s1 58
types 58
Add 57
Auth@@ 57
BUG 57
Double@@ 57
Endpoint 57
K@@ 57
Produc@@ 57
Rect 57
S 57
Session@@ 57
WHERE 57
ch@@ 57
exchange 57
flow@@ 57
getStatus 57
host 57
protocol@@ 57
retVal 57
ver@@ 57
31 56
Bind@@ 56
Completer 56
Definition 56
FS@@ 56
Function@@ 56
Input 56
Observer 56
Registry 56
StandardScheme 56
Start@@ 56
TupleScheme 56
component@@ 56
connect 56
db@@ 56
foo 56
getData 56
keySet 56
kie@@ 56
min@@ 56
produc@@ 56
scale 56
ts 56
z 56
Ar@@ 55
Array@@ 55
Line 55
Only 55
Operator@@ 55
Player 55
TF@@ 55
Time@@ 55
When@@ 55
consumer@@ 55
drawable 55
entry@@ 55
fields 55
header 55
main 55
preferences 55
setOnClickListener 55
up@@ 55
5@@ 54
Bib@@ 54
Course@@ 54
ERROR 54
No 54
PROCESS_@@ 54
STRING 54
Search 54
assertNull 54
camera 54
getS@@ 54
replace 54
results 54
sIn@@ 54
ted 54
ted@@ 54
token 54
var@@ 54
writeVInt 54
B 53
Batch 53
EventData 53
Importer 53
JSON 53
Last@@ 53
Matcher 53
Reference@@ 53
Result@@ 53
Scope 53
TION_@@ 53
Tag 53
Texture@@ 53
Unit@@ 53
UnsupportedOperationException 53
XMLHandler 53
_Fields 53
cached@@ 53
dao@@ 53
directory 53
error@@ 53
ev 53
getP@@ 53
getResource@@ 53
h 53
input@@ 53
mapping@@ 53
select@@ 53
transMeta 53
:: 52
Bean@@ 52
CE 52
CONFIG_@@ 52
Collection@@ 52
Device@@ 52
Directory@@ 52
Duration 52
EasyMock 52
En@@ 52
Ex@@ 52
Format@@ 52
P 52
Replication@@ 52
Robot@@ 52
SELECT 52
W@@ 52
app 52
cu@@ 52
defaultValue 52
frame 52
object@@ 52
partition@@ 52
print@@ 52
proxy@@ 52
timeout 52
14 51
15 51
Book@@ 51
Build@@ 51
DATABASE_@@ 51
Default 51
Entry@@ 51
Form 51
FormAttachment 51
Input@@ 51
Medi@@ 51
Package 51
Pre@@ 51
Size@@ 51
Vcs@@ 51
ating@@ 51
char 51
evt 51
fileName 51
gc 51
getResult 51
notify@@ 51
ons 51
present_@@ 51
realm 51
ri@@ 51
rule 51
server@@ 51
service 51
setup@@ 51
time@@ 51
uri 51
Basic@@ 50
BigDecimal 50
COMMIT 50
ClassLoader 50
Compat 50
Execution 50
FileSystem@@ 50
M_@@ 50
Mapping 50
Me@@ 50
Min@@ 50
NOT 50
Noti@@ 50
Pair 50
Players 50
Project@@ 50
Sample@@ 50
after@@ 50
an@@ 50
descriptor 50
er 50
feedback 50
finally 50
graph@@ 50
ling@@ 50
main@@ 50
ome@@ 50
onClick 50
principal@@ 50
transcript 50
try@@ 50
un 50
variable@@ 50
variables 50
1L 49
Action@@ 49
Arti@@ 49
At 49
Contact@@ 49
Controller 49
Describe@@ 49
Error@@ 49
HttpServletResponse 49
Interface 49
Op 49
Password 49
Profile 49
Return@@ 49
Row@@ 49
S_@@ 49
Sensor@@ 49
TO 49
Tile 49
Version@@ 49
Z@@ 49
appender 49
assi@@ 49
awt 49
cancel 49
consumer 49
d_@@ 49
fd@@ 49
gar@@ 49
id_@@ 49
messages 49
month 49
no@@ 49
resolve@@ 49
stop@@ 49
subscriptions 49
tasks 49
tmp 49
view@@ 49
API_@@ 48
Act 48
ChangeListener 48
Depth 48
Equals 48
Histogram 48
Kind 48
Latency 48
NonNull 48
Note@@ 48
Operator 48
PUT 48
Page@@ 48
Paths 48
Point 48
Pos 48
Root 48
Root@@ 48
Supplier 48
Var 48
WEB_@@ 48
Writable 48
addNew@@ 48
dir 48
en@@ 48
getBytes 48
getSub@@ 48
item_id 48
loader 48
par@@ 48
play@@ 48
right 48
sBy@@ 48
sed@@ 48
Ap@@ 47
Button@@ 47
CONTEXT 47
Col@@ 47
Comm@@ 47
Common@@ 47
Counter 47
DBInstance@@ 47
Decision@@ 47
Elements 47
Gap 47
Https@@ 47
JPanel 47
Latch 47
Platform@@ 47
Preference@@ 47
Protocol@@ 47
Repo 47
Serializable@@ 47
Stats 47
TC@@ 47
Uri@@ 47
__@@ 47
any@@ 47
bar 47
ces 47
compiled@@ 47
gen@@ 47
getForm@@ 47
items 47
ld@@ 47
number 47
open 47
order 47
post@@ 47
pr@@ 47
s2 47
setName 47
th 47
toArray 47
work@@ 47
writeByte 47
An@@ 46
Bitmap 46
Bulk@@ 46
Collector 46
Commit 46
Document@@ 46
First 46
Identity 46
MA 46
Obj@@ 46
OnClickListener 46
Policy@@ 46
Rpc@@ 46
SI@@ 46
ado 46
array 46
ator 46
ators 46
contains@@ 46
do 46
field@@ 46
ftp@@ 46
getTask@@ 46
html 46
ids 46
last 46
mode 46
plan 46
queue@@ 46
replace@@ 46
setting 46
streamId 46
tag 46
var 46
warn 46
"1" 45
1000 45
Consumer@@ 45
Icon 45
JobEntry@@ 45
Level@@ 45
Login@@ 45
Marshaller 45
Match 45
Metric 45
Nonnull 45
Ref 45
SIG@@ 45
Transaction@@ 45
X509@@ 45
agent@@ 45
composite@@ 45
endpoint 45
equalsIgnoreCase 45
execute@@ 45
exit@@ 45
expression 45
extract@@ 45
factory 45
failed 45
getFile@@ 45
getNew@@ 45
getSimpleName 45
ical@@ 45
indexOf 45
int@@ 45
no 45
ot@@ 45
page@@ 45
project@@ 45
sequence@@ 45
setOn@@ 45
ss 45
string@@ 45
testGet@@ 45
us@@ 45
|= 45
0.0 44
00@@ 44
03 44
04 44
20 44
>@@ 44
Back@@ 44
Box 44
Dummy@@ 44
Element@@ 44
Extension 44
Func 44
ImmutableSet 44
In 44
Iterator@@ 44
Jar@@ 44
Line@@ 44
Mask 44
Navigator@@ 44
Num 44
Output 44
PC@@ 44
Pane 44
Parallelism 44
Protocol 44
Realm@@ 44
Reduction@@ 44
Region@@ 44
Relative@@ 44
SQL@@ 44
SR@@ 44
Transactions 44
Transitions 44
ab@@ 44
arr 44
baid@@ 44
broker 44
charAt 44
close@@ 44
compute@@ 44
condition@@ 44
databases 44
ey@@ 44
headers 44
jobId 44
ju@@ 44
limit 44
mc 44
newInstance 44
original@@ 44
phy@@ 44
rule@@ 44
se@@ 44
setUp 44
skip 44
ta@@ 44
ting@@ 44
visible@@ 44
0" 43
Builder@@ 43
ClientMessage 43
Column 43
Cu@@ 43
Exchange 43
FILE 43
ImageView 43
JSONObject 43
Linear@@ 43
Memory@@ 43
Original 43
Registration 43
Replace 43
SELF 43
Storage@@ 43
Thrott@@ 43
Timeout 43
ach@@ 43
comment@@ 43
copy 43
dis@@ 43
getLast@@ 43
getPartition@@ 43
gradient@@ 43
makeText 43
shadow@@ 43
should 43
src@@ 43
tions 43
Application@@ 42
Atlas@@ 42
Auth 42
CA@@ 42
Cmd 42
Created 42
Diff 42
Domain@@ 42
Driver 42
Fit@@ 42
ID_@@ 42
InstanceId 42
InterruptedException 42
Json 42
Load 42
Menu 42
Meta@@ 42
O 42
Objective 42
Proxy@@ 42
TType 42
U 42
ad@@ 42
an 42
android 42
bi@@ 42
bind@@ 42
conn 42
count@@ 42
ex@@ 42
expect 42
have 42
msgType 42
name@@ 42
process 42
propertyName 42
ref@@ 42
row@@ 42
send 42
seqid 42
summary 42
tx 42
wl@@ 42
05 41
06 41
13 41
7@@ 41
8@@ 41
Link 41
Packet@@ 41
Partition 41
Port 41
ProcessInstance 41
Replace@@ 41
Signal@@ 41
Slot 41
Tree@@ 41
With 41
World 41
addEntry 41
cache@@ 41
check 41
checkNotNull 41
document@@ 41
filter@@ 41
format@@ 41
getUser 41
ic_@@ 41
icon@@ 41
link@@ 41
long@@ 41
me@@ 41
ne@@ 41
ni@@ 41
or@@ 41
parseInt 41
png 41
policy 41
preview@@ 41
region 41
sched 41
self 41
sheet@@ 41
sig@@ 41
slave@@ 41
sort 41
ssl@@ 41
stack 41
topic 41
translate@@ 41
6@@ 40
After@@ 40
Alignment 40
By 40
Camera 40
Ch@@ 40
DataType 40
Encoded 40
Go@@ 40
HEADER_@@ 40
Job 40
Locale 40
M 40
Marker 40
Motion@@ 40
Open@@ 40
Producer 40
Remo@@ 40
Serializer@@ 40
Subscription@@ 40
Weight 40
addAs@@ 40
addGroup 40
am@@ 40
any 40
assert 40
batch 40
child@@ 40
clear@@ 40
comp@@ 40
configuration@@ 40
edit 40
encode@@ 40
iface 40
jar@@ 40
ony 40
ord@@ 40
substitutions 40
total 40
ve 40
18 39
Amount 39
App 39
Callable@@ 39
Change@@ 39
Child@@ 39
Consumer 39
DateTime 39
Dis@@ 39
Failed 39
Fold@@ 39
G 39
Has@@ 39
Only@@ 39
POSI@@ 39
PropertyName 39
Rate 39
Resources 39
V 39
Wrap@@ 39
ated 39
boundary 39
col@@ 39
compiling 39
completion_@@ 39
decode@@ 39
folder 39
getAll@@ 39
getKey@@ 39
interpre@@ 39
jPanel@@ 39
led@@ 39
mapping 39
methodName 39
ns 39
port 39
prefix 39
readString 39
rence 39
res@@ 39
return@@ 39
sp@@ 39
style 39
ts@@ 39
type@@ 39
unit 39
us 39
# 38
9@@ 38
At@@ 38
Completion 38
DATA 38
Deployment@@ 38
Executor 38
Flow@@ 38
Font 38
Headers 38
Instant 38
J 38
LENGTH_SHORT 38
Lock 38
Matrix 38
NAME_@@ 38
Observable 38
Place@@ 38
Points 38
Preview@@ 38
Producer@@ 38
Progres@@ 38
R_@@ 38
Remove@@ 38
Rows 38
SIZE 38
SQ@@ 38
StringUtils 38
TInt@@ 38
TaskId 38
XML 38
action@@ 38
alType 38
ationException 38
be@@ 38
by 38
chars 38
de@@ 38
elements 38
fdl@@ 38
flush@@ 38
forec@@ 38
ft 38
full@@ 38
ity 38
join@@ 38
keys 38
merge@@ 38
metric@@ 38
mo@@ 38
must 38
onActivity@@ 38
open_@@ 38
per@@ 38
principals 38
reader 38
search@@ 38
server 38
setId 38
space@@ 38
stats 38
toBytes 38
userId 38
Any@@ 37
Artifact@@ 37
Byte@@ 37
ByteBuffer 37
CLASS 37
Connector@@ 37
Current@@ 37
Deferred@@ 37
Exception@@ 37
Frequency 37
Handle 37
Host 37
INSTANCE 37
IO@@ 37
Language 37
MAX_VALUE 37
Match@@ 37
Post@@ 37
Receiver 37
Res 37
Right 37
Role 37
Rule@@ 37
Status_@@ 37
TORY 37
TestUtils 37
Tx@@ 37
Type_@@ 37
Union@@ 37
Validator 37
Vars 37
Writer@@ 37
ZonedDateTime 37
arrays 37
ation 37
attribute 37
collect@@ 37
common 37
contact 37
each 37
files 37
getMessage@@ 37
ingData 37
keyword@@ 37
len 37
operator 37
param@@ 37
propertyValue 37
range 37
ref 37
sRequest 37
shutdown@@ 37
symbol 37
ter_@@ 37
ty 37
version@@ 37
writing 37
<< 36
Boolean@@ 36
Const 36
DB@@ 36
Display@@ 36
Domain 36
Fire@@ 36
GET 36
Information 36
Interpre@@ 36
Java@@ 36
LSM@@ 36
Mediator@@ 36
Member@@ 36
Methods 36
Mis@@ 36
Multi@@ 36
NULL 36
Named@@ 36
Notification@@ 36
Obj 36
Permission 36
Progress@@ 36
SSH@@ 36
Sig@@ 36
Statistics 36
TASK_@@ 36
TProtocolUtil 36
XML@@ 36
ability@@ 36
accept 36
application 36
c1 36
cancel_@@ 36
cket@@ 36
class_@@ 36
close_@@ 36
command@@ 36
convert@@ 36
currentTimeMillis 36
emptyList 36
enable@@ 36
eting 36
has 36
ie@@ 36
isIn@@ 36
ly@@ 36
order@@ 36
page 36
parser 36
processInstanceId 36
provin@@ 36
ps 36
reduce@@ 36
relative@@ 36
retval 36
selected@@ 36
setVisibility 36
sum@@ 36
thrown 36
ti@@ 36
token@@ 36
translate 36
ve_@@ 36
words 36
2_@@ 35
AUTH_@@ 35
Api 35
Args 35
Async 35
Attribute@@ 35
Authoriz@@ 35
Axis@@ 35
Change 35
Cursor@@ 35
Detail 35
Details 35
Engine@@ 35
Event_@@ 35
Git@@ 35
Handler@@ 35
Hash@@ 35
Invalid 35
Io@@ 35
Keys 35
MF@@ 35
Measure 35
Msg@@ 35
NONE 35
Positions 35
Provin@@ 35
RE@@ 35
Range@@ 35
Robo@@ 35
Stage 35
Sys 35
TupleType 35
UI@@ 35
UUID 35
Window@@ 35
Write 35
alias 35
article@@ 35
ch 35
curr@@ 35
custom@@ 35
der@@ 35
empty 35
events 35
executeQuery 35
getLocalName 35
getProcess@@ 35
hello 35
instructions 35
internal 35
ith@@ 35
layer 35
lectri@@ 35
level 35
manager 35
maybe@@ 35
num 35
properties@@ 35
sCount 35
scriptions 35
setR@@ 35
size@@ 35
super@@ 35
tex@@ 35
tl@@ 35
total@@ 35
writeString 35
07 34
08 34
09 34
0@@ 34
Children 34
D_@@ 34
ER@@ 34
F 34
Home 34
Host@@ 34
HttpServletRequest 34
Mar@@ 34
Monitor@@ 34
N_@@ 34
Nodes 34
Operation@@ 34
Process 34
PsiReferenceExpression 34
Run 34
Score 34
Sp@@ 34
Stack 34
Style 34
TRE@@ 34
Token@@ 34
Url@@ 34
Vertex 34
after 34
ated@@ 34
bio@@ 34
block@@ 34
change@@ 34
collect 34
con@@ 34
da 34
de 34
display@@ 34
getJob@@ 34
getLogger 34
getSelection 34
grid 34
ins 34
les 34
ma@@ 34
me 34
mod@@ 34
neighbor 34
observer 34
ok@@ 34
po@@ 34
prj 34
progressDialog 34
q 34
sleep 34
stream@@ 34
trace 34
trail@@ 34
txid 34
url@@ 34
30 33
32 33
Actions 33
Assertion@@ 33
Bpm@@ 33
Captor 33
Clear@@ 33
Credential 33
Dimensions 33
Excel@@ 33
Field@@ 33
Lines 33
MainActivity 33
Par@@ 33
Patterns 33
Per@@ 33
Platform 33
Po@@ 33
PreferenceManager 33
Processing@@ 33
Signature 33
Success@@ 33
TABLE 33
Tx 33
Visible@@ 33
Without@@ 33
Y_@@ 33
andReturn 33
batch@@ 33
booleanValue 33
cause 33
center 33
copyOf 33
current 33
dt 33
feed@@ 33
fi@@ 33
form 33
gene@@ 33
getBody 33
getResource 33
imageView 33
initialize@@ 33
io 33
mark@@ 33
marshall 33
pos_@@ 33
remote@@ 33
setType 33
shard@@ 33
socket@@ 33
text@@ 33
unset@@ 33
-- 32
1.0 32
25 32
ActionEvent 32
Bin@@ 32
Composite 32
CopyOnWrite@@ 32
Definition@@ 32
Edition@@ 32
Email@@ 32
Events 32
Ex 32
FileSystem 32
Folding@@ 32
Framework@@ 32
G_@@ 32
Ho@@ 32
MediaType 32
Module 32
NodeId 32
Normal 32
Null 32
NumberFormatException 32
OF@@ 32
Present 32
Range 32
Repo@@ 32
Running 32
SM@@ 32
ST@@ 32
Schedule@@ 32
Scroll@@ 32
Selection 32
Sensor 32
Servlet@@ 32
Topic@@ 32
access@@ 32
been 32
camera@@ 32
classes 32
collection 32
connection@@ 32
cs 32
day 32
destination@@ 32
done 32
dsl 32
email@@ 32
ep 32
errMsg 32
form@@ 32
fragment 32
gest@@ 32
getService 32
getWidth 32
iter 32
jLabel@@ 32
ld 32
le 32
left@@ 32
link 32
merge 32
multi@@ 32
objects 32
option@@ 32
package@@ 32
processInstance 32
receiver 32
refresh 32
rm@@ 32
setContentView 32
stop 32
taskService 32
testRunner 32
thumb@@ 32
we 32
yz@@ 32
zip@@ 32
卡@@ 32
ADDRESS 31
Account@@ 31
Audio@@ 31
Available 31
Blob@@ 31
Bottom@@ 31
CORE_@@ 31
Checkpoint@@ 31
Closed 31
Colors 31
Composite@@ 31
Con@@ 31
Contribu@@ 31
Dao@@ 31
DataSource 31
Dataset@@ 31
Edges 31
Encryption@@ 31
Invalid@@ 31
Jar 31
Kernel@@ 31
LE 31
LocalTime 31
Main@@ 31
OK 31
Over@@ 31
Quanti@@ 31
Schedule 31
Schema@@ 31
Setting@@ 31
TEXT 31
TION@@ 31
Tab@@ 31
Term@@ 31
Tier 31
Visual@@ 31
Weight@@ 31
Word@@ 31
ack 31
addActionListener 31
ance 31
append@@ 31
arg@@ 31
ations 31
att 31
bb 31
cast@@ 31
context@@ 31
controller 31
countDown 31
des@@ 31
desc 31
dialog@@ 31
direct@@ 31
dst@@ 31
enter 31
exec@@ 31
functions 31
getHeight 31
getObjectId 31
getProperties 31
getResources 31
gro@@ 31
handle 31
invoke@@ 31
led 31
loaded 31
lock@@ 31
member@@ 31
my 31
one@@ 31
open@@ 31
packageName 31
props 31
putInt 31
registry 31
reset 31
reset@@ 31
resolver 31
resources 31
scription@@ 31
web@@ 31
AlertDialog 30
Android@@ 30
Box@@ 30
CC@@ 30
Cell 30
Cloud@@ 30
Copy@@ 30
Core@@ 30
Cre@@ 30
EN@@ 30
EntityManager 30
Errors 30
Files@@ 30
Gl@@ 30
Glow@@ 30
IL@@ 30
IP@@ 30
Indicator 30
Listener@@ 30
ManagerFactory 30
Mark 30
Normal@@ 30
Objective@@ 30
Password@@ 30
Preferences 30
Random@@ 30
RemoteException 30
Resolution 30
San@@ 30
Show@@ 30
Str@@ 30
Strategy@@ 30
TBaseHelper 30
Temp@@ 30
Through@@ 30
Two@@ 30
\t 30
_re@@ 30
ame@@ 30
available 30
bitmap 30
condition 30
config@@ 30
da@@ 30
dispatch@@ 30
et 30
getH@@ 30
hash 30
import@@ 30
inflate 30
ingType 30
istic 30
light@@ 30
lin@@ 30
lr 30
lt 30
matching@@ 30
mc@@ 30
objective 30
omi@@ 30
orElse 30
persistence 30
pository 30
putString 30
rating@@ 30
sByName 30
sFor@@ 30
sWith@@ 30
search 30
setLayoutData 30
subscription@@ 30
tab@@ 30
tion@@ 30
ve@@ 30
vertex 30
was 30
where 30
world@@ 30
1.@@ 29
34 29
Annotation 29
COLUMN_@@ 29
Camera@@ 29
Category 29
ChannelHandlerContext 29
Chunk 29
Cli 29
Close 29
DB 29
DB_@@ 29
Display 29
END 29
Form@@ 29
HTTP@@ 29
HashCode 29
JButton 29
Label@@ 29
Main 29
MessageCount 29
MotionEvent 29
Movie@@ 29
Ne@@ 29
One@@ 29
Package@@ 29
RDF@@ 29
Rating@@ 29
Realm 29
Ref@@ 29
Return 29
Runner 29
Same@@ 29
St@@ 29
StateManager 29
Step@@ 29
Stepname 29
SuppressWarnings 29
TextUtils 29
Transaction 29
UD@@ 29
USER_@@ 29
Valid@@ 29
Visitor@@ 29
alert 29
c2 29
cean@@ 29
convert 29
deepCopy 29
ding@@ 29
doc@@ 29
environment 29
ep@@ 29
fileSys 29
final@@ 29
forEach 29
generate@@ 29
getClient@@ 29
getLength 29
hi@@ 29
host@@ 29
imp@@ 29
isTrue 29
ls@@ 29
marker 29
only@@ 29
pe@@ 29
pid 29
prop@@ 29
regex 29
rows 29
statusCode 29
sync@@ 29
userName 29
10@@ 28
16@@ 28
Background 28
Code@@ 28
Destination@@ 28
Direction 28
Dto 28
Ev@@ 28
Evaluator 28
Exist@@ 28
Expected 28
Expression@@ 28
GridLayout 28
Immutable@@ 28
InstanceOf 28
Ju@@ 28
KEY@@ 28
Location@@ 28
Locations 28
Member 28
Model@@ 28
Month 28
Orientation 28
Out 28
PB 28
PREFERRED_SIZE 28
Pack 28
Parameter@@ 28
Point@@ 28
Processor 28
REPLY 28
Representation 28
STATE_@@ 28
SUCCESS 28
Satisfied 28
Soft@@ 28
Speci@@ 28
StringBuffer 28
TApplic@@ 28
TimeUnit 28
URL@@ 28
USER_ID 28
Work@@ 28
_args 28
annotation 28
author 28
base 28
bits 28
board 28
button 28
call@@ 28
can 28
chat@@ 28
clients 28
closed 28
complete 28
conditions 28
ded@@ 28
depth@@ 28
display 28
dispose 28
ds@@ 28
each@@ 28
entries 28
fields@@ 28
getChildren 28
getContent 28
getPre@@ 28
getProject 28
getResult@@ 28
google 28
idp 28
imported 28
indices 28
inflater 28
isAssignableFrom 28
margin 28
match@@ 28
merged@@ 28
mm@@ 28
newBuilder 28
newValue 28
normal@@ 28
ors 28
param 28
parts 28
present@@ 28
protobuf 28
public@@ 28
push 28
queue 28
readField@@ 28
required@@ 28
score@@ 28
services 28
setTitle 28
sets 28
simple 28
stmt 28
store@@ 28
suite 28
te@@ 28
template@@ 28
too@@ 28
weight 28
x1 28
10000 27
19@@ 27
50 27
AAA 27
After 27
Allowed 27
Before@@ 27
C_@@ 27
ChatColor 27
Click 27
Conf 27
Connector 27
DE_@@ 27
Delete@@ 27
Deps 27
Details@@ 27
Eval@@ 27
Exchange@@ 27
Factory@@ 27
Feed@@ 27
Filename 27
Getter 27
Gradient@@ 27
H2@@ 27
Hardware@@ 27
Hello 27
HttpEntity 27
HttpMethod 27
HttpStatus 27
K 27
Ko@@ 27
Link@@ 27
Loader@@ 27
MD@@ 27
Media@@ 27
Mid@@ 27
Missing@@ 27
Nb@@ 27
Picker@@ 27
Plugin 27
Pointer@@ 27
Pools 27
Refresh@@ 27
Remaining@@ 27
RequestMethod 27
ResultSet 27
Runtime@@ 27
SS@@ 27
SSLContext 27
Space@@ 27
TEST 27
TO_@@ 27
Under@@ 27
Use@@ 27
VERSION 27
Weigh@@ 27
_get@@ 27
al 27
ally@@ 27
audio 27
av@@ 27
binding 27
broadcast 27
by@@ 27
cannot 27
cents 27
correlation@@ 27
createParallelGroup 27
cut@@ 27
delegate 27
endsWith 27
erase@@ 27
example 27
file1 27
getIn@@ 27
getRoot@@ 27
inf@@ 27
isPresent 27
iso@@ 27
label 27
like 27
ly 27
mark 27
menu@@ 27
method@@ 27
neg_@@ 27
nextToken 27
night 27
onError 27
p1 27
publish@@ 27
re 27
record@@ 27
replay 27
save 27
schedule 27
setIs@@ 27
setValue 27
short@@ 27
sort@@ 27
thread 27
timestamp 27
tion 27
when@@ 27
x2 27
"0" 26
.@@ 26
0.@@ 26
11@@ 26
2.0 26
API@@ 26
Arena@@ 26
Arr 26
Bridge 26
Call 26
Com@@ 26
Comp@@ 26
Comparator 26
Count@@ 26
DAO 26
DialogInterface 26
Dimension 26
ElementTypes 26
Exam@@ 26
FILE_@@ 26
Functions 26
GoTo@@ 26
INFO_@@ 26
Int 26
Kernel 26
Language@@ 26
Left 26
Monitor 26
OR 26
Pipeline@@ 26
Record@@ 26
Refresh 26
Returns@@ 26
SEARCH_@@ 26
START_@@ 26
Scale@@ 26
Selected 26
Selection@@ 26
Sink 26
TableModel 26
Top@@ 26
Trust@@ 26
Try@@ 26
Workflow@@ 26
XContentBuilder 26
\ 26
_result 26
adapter 26
ajax@@ 26
allowed 26
apiVersion 26
artifacts 26
assigned 26
category 26
cluster@@ 26
comm@@ 26
debug@@ 26
edge@@ 26
ent@@ 26
extra@@ 26
fixture 26
getAbsolutePath 26
getActive@@ 26
htt@@ 26
isDirectory 26
line@@ 26
lo@@ 26
metadata 26
mon@@ 26
mp@@ 26
newList 26
non@@ 26
op@@ 26
operation 26
p2 26
parameter@@ 26
place@@ 26
private@@ 26
proc@@ 26
processor 26
src 26
stack@@ 26
targetDepth 26
title_@@ 26
top 26
top@@ 26
vals 26
vo@@ 26
volution@@ 26
was@@ 26
比 26
13@@ 25
17 25
19 25
Any 25
Assert@@ 25
Association@@ 25
BEGIN 25
Bg@@ 25
Blocking 25
Cam@@ 25
Center 25
Char 25
CloneNotSupportedException 25
Comment 25
Contract 25
Delay 25
ENABLED 25
Emp@@ 25
Failure@@ 25
Fn@@ 25
Frame@@ 25
GROUP 25
Gran@@ 25
InfoList 25
Instructions 25
KettleException 25
MASK 25
Namespace 25
Numer@@ 25
On 25
One 25
Optional@@ 25
PP@@ 25
Packet 25
Parse@@ 25
Place 25
RT@@ 25
Registration@@ 25
Running@@ 25
Standard@@ 25
Stop@@ 25
Thread@@ 25
Unable 25
Vector@@ 25
addColumn 25
added 25
amount 25
ario 25
ced@@ 25
compile 25
cost 25
day@@ 25
dir@@ 25
ds 25
edge 25
engine 25
ers 25
exit 25
fieldId 25
fieldName 25
function 25
getAttributes 25
getBase@@ 25
getConfiguration 25
getCount 25
getFirst@@ 25
getLog@@ 25
getOption 25
getOrCreate@@ 25
getProject@@ 25
getResponse@@ 25
getTagValue 25
getUserName 25
house 25
ies 25
initial@@ 25
initialize 25
j1 25
language 25
li@@ 25
lier@@ 25
lock 25
namespace 25
nee 25
prefix@@ 25
prepared@@ 25
record 25
rsp 25
segment@@ 25
shell 25
sink 25
ter 25
term 25
test_@@ 25
ties@@ 25
timer 25
trans@@ 25
tur@@ 25
typeName 25
update_@@ 25
varName 25
writer 25
xml 25
you 25
之@@ 25
24 24
4" 24
Active@@ 24
Artifact 24
BY 24
Bad@@ 24
Begin 24
Behavior 24
ByteOffset 24
Certificate@@ 24
Child 24
Could 24
Cycle@@ 24
DatabaseException 24
Def 24
Deleted 24
Desc 24
Discover@@ 24
Drawable 24
EP@@ 24
Equal 24
Fixture 24
Frame 24
From 24
Future 24
Get 24
GridData 24
Hook 24
INTEGER 24
Internal 24
JSONArray 24
Layout@@ 24
Lines@@ 24
Lock@@ 24
M_S@@ 24
Mark@@ 24
Missing 24
NO_@@ 24
Object_@@ 24
Options@@ 24
PATTERN 24
Pattern@@ 24
Position@@ 24
Preconditions 24
Rank 24
Report 24
RequestMapping 24
Retry@@ 24
ScrollPane 24
Security@@ 24
Shadow@@ 24
Should 24
Step 24
TED 24
TOLERANCE 24
Tags 24
TaskInfo 24
Tool@@ 24
VISIBLE 24
Work 24
WorkItem 24
XContentFactory 24
_SERVER_@@ 24
backup 24
bar@@ 24
board@@ 24
breaker 24
certificate 24
classLoader 24
cores 24
coun@@ 24
cz@@ 24
download@@ 24
entity@@ 24
estimate 24
ff 24
finish 24
flag 24
gl@@ 24
identity@@ 24
img 24
invoke 24
join 24
ke@@ 24
localhost 24
mb@@ 24
metaData 24
methods 24
net 24
noise 24
now 24
payload 24
permission 24
prepare@@ 24
psi@@ 24
rand 24
reg 24
repository 24
sPer@@ 24
same 24
sar@@ 24
saw@@ 24
separator 24
sequences 24
setOption 24
shared@@ 24
shutdown 24
spi 24
startActivity 24
statistic@@ 24
supported 24
t1 24
tableName 24
tives 24
tmp@@ 24
toCharArray 24
topic@@ 24
und@@ 24
wall@@ 24
x3 24
x4 24
"1.@@ 23
21 23
2D 23
38@@ 23
ADMIN_@@ 23
AL 23
ALL 23
AM@@ 23
Argument@@ 23
Attend@@ 23
Authenticator 23
Automat@@ 23
BitSet 23
CR@@ 23
Callable 23
Correct@@ 23
Customer 23
Detail@@ 23
Dirs 23
ER_@@ 23
Equal@@ 23
Exceptions 23
Generated 23
Generics 23
Handle@@ 23
IN@@ 23
Iterate@@ 23
JSON@@ 23
K_@@ 23
Kie@@ 23
LD@@ 23
LinearLayout 23
Max 23
Minutes 23
Modification@@ 23
Network@@ 23
POOL_@@ 23
PRE@@ 23
Party@@ 23
Pivot@@ 23
Preview 23
ROOT_@@ 23
Rectangle 23
Reduce@@ 23
Ro@@ 23
SQL 23
Searcher 23
Servlet 23
Short 23
Socket@@ 23
Studio@@ 23
Suite@@ 23
Switch@@ 23
TA@@ 23
TU 23
Tasks 23
Throws 23
Tracker 23
Transition 23
Username 23
Video@@ 23
Virtual@@ 23
Z 23
ack@@ 23
addTagValue 23
ail@@ 23
allowed@@ 23
assertArrayEquals 23
balance 23
changed 23
changes 23
color 23
createSequentialGroup 23
createStatement 23
creator 23
dd 23
dimension 23
directory@@ 23
distance 23
doubleValue 23
encode 23
env 23
exist 23
existing@@ 23
font 23
for@@ 23
getAction@@ 23
getBlock@@ 23
getNum@@ 23
head 23
initialized 23
insert@@ 23
intent@@ 23
isNotNull 23
ja@@ 23
kind 23
latch 23
lexer 23
login 23
mask 23
mr@@ 23
occu@@ 23
onCreate@@ 23
parseLong 23
pig@@ 23
pod@@ 23
projectId 23
pub@@ 23
radi@@ 23
received@@ 23
ree@@ 23
ren@@ 23
rh@@ 23
sc@@ 23
score 23
sdf 23
select 23
selected 23
setMax@@ 23
slot 23
statement 23
ters 23
timestamp@@ 23
users 23
valid@@ 23
wire 23
word 23
work 23
www 23
星@@ 23
12@@ 22
2.@@ 22
8" 22
AL@@ 22
ApplicationContext 22
Arn 22
Attr 22
Bio@@ 22
Bra@@ 22
Buf 22
CAST_@@ 22
Caching@@ 22
ClassType 22
Community 22
Complete 22
Conditional@@ 22
Contents 22
Couch@@ 22
Coun@@ 22
Criteria 22
Day@@ 22
De@@ 22
Exact@@ 22
Exclude 22
Exp@@ 22
Expr 22
Fin@@ 22
Gem@@ 22
Hierarchy@@ 22
HttpRequest@@ 22
Ignore 22
ItemStack 22
Iterable 22
LI@@ 22
LayoutParams 22
Library 22
Limit@@ 22
Logical@@ 22
Machine@@ 22
Module@@ 22
MouseEvent 22
Not 22
OAuth2@@ 22
OR@@ 22
ORDER 22
Offset@@ 22
Pressed 22
Proxy 22
Put 22
Put@@ 22
Received 22
References 22
Registr@@ 22
SW@@ 22
Shape 22
Steps 22
StringLiteral@@ 22
Subscriber 22
Supp@@ 22
Team 22
That@@ 22
Transformation@@ 22
USER 22
Updated 22
Versions 22
Written 22
Zip@@ 22
account@@ 22
ade@@ 22
allow@@ 22
andExpect 22
are 22
arg0 22
arguments 22
bad@@ 22
basic@@ 22
br 22
calculate@@ 22
cell@@ 22
city 22
cmd 22
cou@@ 22
database 22
deco@@ 22
detail@@ 22
dialog_@@ 22
duration 22
email 22
ensure@@ 22
foo@@ 22
fromString 22
getElement 22
getElement@@ 22
getExternal@@ 22
getIs@@ 22
getPassword 22
getSelected@@ 22
high@@ 22
ic@@ 22
instruction@@ 22
invocation 22
item_@@ 22
ks 22
memory 22
mix@@ 22
module 22
optim@@ 22
original 22
prev@@ 22
profile 22
progress 22
pu@@ 22
receive@@ 22
render@@ 22
replaceAll 22
requested@@ 22
resolved@@ 22
setMessage 22
some@@ 22
split@@ 22
system@@ 22
ti 22
toList 22
transform@@ 22
tt@@ 22
walk@@ 22
we@@ 22
window 22
workflow@@ 22
wrapper 22
128 21
4j 21
64@@ 21
AT@@ 21
Ab@@ 21
Allowed@@ 21
Answer 21
Application 21
Aws@@ 21
BB 21
BEAN_@@ 21
Base64@@ 21
ColumnInfo 21
Contains@@ 21
Conversion@@ 21
CountDownLatch 21
DEFAULT_SIZE 21
DEFINI@@ 21
DETE@@ 21
Decorator@@ 21
Descriptors 21
Dispatcher@@ 21
Distance 21
Edi@@ 21
Encoding 21
FF@@ 21
Factor 21
FileObject 21
Flag 21
Formatted@@ 21
Ft@@ 21
Gui 21
ID@@ 21
IDs 21
InetAddress 21
Init@@ 21
Ip@@ 21
It 21
JMX@@ 21
Last 21
LayoutInflater 21
Ldap@@ 21
Life@@ 21
MA@@ 21
Maps 21
Master 21
ON_@@ 21
Ok@@ 21
Parcel 21
Payload 21
Person 21
Phrase 21
ProcessInstance@@ 21
Processor@@ 21
Product 21
Proposal@@ 21
Repl@@ 21
Roots 21
SP@@ 21
Sample 21
Secure@@ 21
Selected@@ 21
ServerName 21
Space 21
Ste@@ 21
TException 21
Threshold 21
Topic 21
Touch@@ 21
TypeEnum 21
Types@@ 21
VALUES 21
VarName 21
Vault@@ 21
Worker@@ 21
advance 21
algorithm 21
arrange 21
async 21
beta@@ 21
bind 21
cancel@@ 21
catch@@ 21
choose@@ 21
cl@@ 21
cn 21
complete@@ 21
configure 21
delta 21
describe@@ 21
details 21
doTest 21
does 21
e_@@ 21
encoded 21
generator@@ 21
genome 21
gesti@@ 21
getContent@@ 21
getContext@@ 21
getLocal@@ 21
getMethod 21
getTitle 21
getType@@ 21
getY 21
groups 21
if@@ 21
jsonBuilder 21
lan@@ 21
logError 21
meta@@ 21
msg@@ 21
myProject 21
part 21
partition 21
pass 21
path@@ 21
pause 21
pay 21
prox@@ 21
quantity 21
red@@ 21
requestCode 21
resp 21
resultList 21
role 21
sException 21
sam@@ 21
script 21
seen 21
setDefault@@ 21
setNum@@ 21
sides 21
tail 21
trigger@@ 21
ula@@ 21
unmarshall 21
user_id 21
using 21
ut@@ 21
visit 21
yp@@ 21
zk@@ 21
zu 21
0F 20
1024 20
199@@ 20
36@@ 20
45@@ 20
A_@@ 20
Anim@@ 20
Approxim@@ 20
Artifacts 20
Bar 20
Build 20
Business@@ 20
CACHE_@@ 20
CREATE 20
Cancel@@ 20
CellRenderer 20
Character 20
Close@@ 20
Color@@ 20
Compare@@ 20
Current 20
DC@@ 20
DE@@ 20
DataSet 20
Docs 20
END_@@ 20
Each 20
Encryption 20
Executable@@ 20
FieldName 20
FileOutputStream 20
Fill@@ 20
Flush@@ 20
For 20
Gr@@ 20
HEADERS 20
Horiz@@ 20
I_@@ 20
ImageButton 20
ImmutableMap 20
InstanceState 20
It@@ 20
KeyEvent 20
Library@@ 20
LinkedList 20
LocalDateTime 20
Login 20
Mode@@ 20
NotFound 20
NullPointerException 20
PARAM_@@ 20
PREFIX 20
Panel@@ 20
Persistence 20
Phone 20
Places 20
Player@@ 20
Please 20
Q 20
QR@@ 20
Random 20
RecyclerView 20
SECONDS 20
SO@@ 20
Save@@ 20
Segment 20
Sheet 20
Si@@ 20
StaxUnmarshaller 20
Stub 20
Support@@ 20
TABLE_@@ 20
TS 20
TUP@@ 20
TableName 20
TestCase 20
Then@@ 20
TimeSeries@@ 20
UnderTest 20
Unknown 20
Upload@@ 20
VERSION_@@ 20
ViewGroup 20
Was@@ 20
\t@@ 20
admin@@ 20
alo@@ 20
and@@ 20
answer 20
ant@@ 20
base64@@ 20
bb@@ 20
bean@@ 20
bin 20
bitmap@@ 20
blocks 20
cas@@ 20
chunk@@ 20
classi@@ 20
columns 20
con 20
configure@@ 20
contact@@ 20
dat 20
dataSource 20
dataset@@ 20
den@@ 20
disable 20
document 20
fail@@ 20
fake@@ 20
filePath 20
getAnd@@ 20
getDeclared@@ 20
getEvent@@ 20
getFileName 20
getParameter 20
getParameters 20
getReference@@ 20
getResponse 20
getTarget@@ 20
getTimestamp 20
gui 20
history@@ 20
ho@@ 20
identifier 20
idx 20
ies@@ 20
include@@ 20
inputs 20
insert 20
intValue 20
inventory 20
isSet 20
ite@@ 20
lit@@ 20
machine@@ 20
monitor@@ 20
move 20
need@@ 20
om@@ 20
pay@@ 20
pkg 20
player@@ 20
pos@@ 20
position@@ 20
post 20
reduce 20
region@@ 20
resultCode 20
returnValue 20
safe@@ 20
script@@ 20
setBackground 20
setHeader 20
setImage@@ 20
setLayout 20
signature 20
step 20
subscription 20
superClass 20
surface@@ 20
t2 20
tos 20
validate 20
well@@ 20
writeTo@@ 20
01@@ 19
04@@ 19
22 19
60 19
AS@@ 19
Adapter@@ 19
Address@@ 19
Admin 19
Alert@@ 19
Authorization@@ 19
Bad 19
Be@@ 19
Binding 19
Bindings 19
COL@@ 19
Caller@@ 19
Can@@ 19
Check@@ 19
Clin@@ 19
Collectors 19
Contact 19
Coordinate 19
Correlation@@ 19
Credenti@@ 19
Credential@@ 19
DI@@ 19
DTO@@ 19
Dependency 19
Deployment 19
Drag@@ 19
Empty 19
Entities 19
EventListener 19
EventType 19
Executor@@ 19
Exist 19
Exists 19
Fn 19
FormData 19
Fs 19
Helpers 19
HttpClient 19
HttpResponse 19
IN_@@ 19
Implicit@@ 19
Initial@@ 19
Inspection@@ 19
Interval 19
LEADING 19
LIST 19
Membership@@ 19
Menu@@ 19
Metrics@@ 19
Modified 19
Next 19
ON 19
POST 19
Permissions 19
PsiType 19
Renderer 19
Replication 19
ResultType 19
Route 19
Serializable 19
Sessions 19
SimpleDateFormat 19
Sources 19
Specs 19
Speech@@ 19
Stock 19
Support 19
TITLE 19
This 19
Total 19
Trans@@ 19
TransactionId 19
Transform@@ 19
Used 19
VER@@ 19
Validator@@ 19
Vector 19
ac@@ 19
ag@@ 19
age 19
arent@@ 19
arity 19
ask@@ 19
axis2 19
before 19
but 19
button@@ 19
byte@@ 19
city@@ 19
classes@@ 19
coll@@ 19
common@@ 19
cond 19
contentType 19
cor@@ 19
costs 19
ct 19
des 19
dirs 19
errorCode 19
even 19
eventId 19
external@@ 19
flush 19
fol@@ 19
frame@@ 19
framework@@ 19
getApplication 19
getChildNodes 19
getClass@@ 19
getInt@@ 19
getLong 19
getSession 19
getTime@@ 19
getWrite@@ 19
getX 19
gr 19
href 19
il@@ 19
invalid 19
isNull 19
lat@@ 19
low 19
mLast@@ 19
mapperService 19
mid 19
mouse@@ 19
myName 19
newname 19
numDataNodes 19
opcode@@ 19
operation@@ 19
packet 19
pair 19
peek 19
point 19
previous@@ 19
qi@@ 19
release@@ 19
replacement@@ 19
report@@ 19
scale@@ 19
screen@@ 19
secret@@ 19
setKey@@ 19
sl@@ 19
starting@@ 19
sys 19
temp 19
theme 19
this@@ 19
tic@@ 19
transp@@ 19
turn 19
unchecked 19
updated@@ 19
"2" 18
0F@@ 18
23 18
26 18
32@@ 18
40 18
55@@ 18
8.@@ 18
80 18
Absolute 18
Ack@@ 18
Affinity@@ 18
Annotation@@ 18
AsyncTask 18
AtomicLong 18
B_@@ 18
Binary@@ 18
BufferedReader 18
ById 18
CD@@ 18
Called 18
Car 18
Character@@ 18
Columns 18
Completed 18
Compo@@ 18
DA@@ 18
DS@@ 18
Debug@@ 18
Detailed 18
Dn 18
ED 18
EPI@@ 18
EVALU@@ 18
Elements@@ 18
Email 18
Esb@@ 18
Expected@@ 18
FT@@ 18
FieldValue 18
Flags 18
Float@@ 18
FullName 18
High@@ 18
Histor@@ 18
HitCount 18
Home@@ 18
HttpRequest 18
IP 18
JLabel 18
JobId 18
KeyName 18
Linked@@ 18
Long@@ 18
MAX_@@ 18
MenuItem 18
Mvc@@ 18
ON@@ 18
ObjectId 18
P_@@ 18
Pc 18
Period 18
Pooled@@ 18
Pref 18
Prefix 18
Program 18
PsiTreeUtil 18
Publish@@ 18
REST@@ 18
RP@@ 18
RepositoryException 18
Selec@@ 18
Send@@ 18
Slave@@ 18
Sn@@ 18
SocketAddress 18
Synthe@@ 18
TEST_@@ 18
TRANSPORT_@@ 18
TT@@ 18
Timeout@@ 18
Timer 18
Trail@@ 18
Train@@ 18
Transformation 18
TreeNode 18
UI 18
Usage@@ 18
UserName 18
Valid 18
actionPerformed 18
active@@ 18
activity_@@ 18
aliz@@ 18
already 18
attribute@@ 18
bo@@ 18
boundary@@ 18
charset 18
colors 18
commun@@ 18
compound 18
course 18
ct@@ 18
dataset 18
depth 18
detect 18
deviceId 18
disable@@ 18
edit@@ 18
el@@ 18
element@@ 18
endpoint@@ 18
et@@ 18
ext 18
feature@@ 18
flag@@ 18
generic@@ 18
getArray@@ 18
getEndpoint 18
getIn 18
getName@@ 18
getProgress 18
getServer@@ 18
getSource@@ 18
getString@@ 18
getSystem@@ 18
goto@@ 18
internal@@ 18
isEnabled 18
istic@@ 18
jp 18
ked@@ 18
layout@@ 18
loaded@@ 18
loading@@ 18
mat 18
maven@@ 18
mongo@@ 18
newName 18
normalize@@ 18
objec@@ 18
one 18
only 18
option 18
price 18
prop 18
property@@ 18
puts 18
refresh@@ 18
rel@@ 18
roll@@ 18
sc 18
seq@@ 18
setIcon 18
sive@@ 18
skip@@ 18
sn@@ 18
sts 18
student 18
su@@ 18
testExpression 18
text1 18
trip@@ 18
trust@@ 18
tter@@ 18
ui 18
writeInt 18
written@@ 18
xml@@ 18
"201@@ 17
25@@ 17
4b 17
90 17
:00" 17
APPLICATION_@@ 17
ActionBar 17
ActionPerformed 17
Agenda@@ 17
Alias@@ 17
BAD_REQUEST 17
Bar@@ 17
BuildTarget 17
CENTER 17
CF@@ 17
COLUMN 17
Catch@@ 17
Center@@ 17
Chunk@@ 17
City 17
Click@@ 17
ClickListener 17
ClientException 17
Codes 17
Combo 17
Commands 17
Connect@@ 17
Create 17
Created@@ 17
Customer@@ 17
Decoder 17
Detection@@ 17
Discovery@@ 17
EXCEPTION 17
Entries 17
Enum 17
Explain@@ 17
FAC@@ 17
FI@@ 17
FQ@@ 17
FileName@@ 17
Filesystem 17
Finder 17
FromString 17
GO@@ 17
Grid 17
Hits 17
IC_@@ 17
Identifier 17
Indi@@ 17
Indices@@ 17
Infos 17
LayoutStyle 17
MI@@ 17
Messages@@ 17
MimeType 17
NOT_@@ 17
Next@@ 17
NodeList 17
Notes 17
Notify@@ 17
ONE 17
OP 17
PARAMETER 17
PLAY_@@ 17
PROJECT_@@ 17
Param@@ 17
Part 17
Placement 17
PrintWriter 17
RELATED 17
RIGHT 17
Ratio 17
Receipt@@ 17
Requested@@ 17
Requests 17
Scanner 17
Seconds 17
ServletException 17
Short@@ 17
Sound@@ 17
Sparse@@ 17
Stack@@ 17
Started@@ 17
Stat 17
Statements 17
Strict@@ 17
Subscription 17
Supported@@ 17
Symbol 17
TRANS@@ 17
TokenType 17
Total@@ 17
Tra@@ 17
Translation@@ 17
Tuple@@ 17
UID 17
Ui@@ 17
Users 17
V4@@ 17
VALUE 17
Vertex@@ 17
Word 17
WorkItem@@ 17
Zero@@ 17
active 17
addPreferred@@ 17
align 17
atest@@ 17
b1 17
bindings 17
bottom@@ 17
car@@ 17
cer@@ 17
characters 17
comment 17
compare@@ 17
contracts 17
criteria 17
date@@ 17
decode 17
dismiss 17
du@@ 17
emptyMap 17
exclude@@ 17
fa@@ 17
fill@@ 17
folder@@ 17
getColumn@@ 17
getExpected@@ 17
getField@@ 17
getHttp@@ 17
getNodeType 17
getStack@@ 17
getState 17
getValue@@ 17
hasFocus 17
highest@@ 17
home@@ 17
ignore@@ 17
incoming 17
ities 17
j2 17
js 17
kv 17
label@@ 17
loading 17
loc@@ 17
local 17
locations 17
mapper 17
ment 17
moveTo@@ 17
nu 17
obj@@ 17
over@@ 17
passed 17
password@@ 17
perform 17
pointer@@ 17
progress@@ 17
proposal@@ 17
prote@@ 17
proxy 17
range@@ 17
readLine 17
reg@@ 17
reload@@ 17
rich@@ 17
ro@@ 17
s3@@ 17
second 17
selection@@ 17
setStatus 17
setTime 17
setup 17
singleton 17
stro@@ 17
subscribe 17
subscriber 17
targets 17
tc 17
text2 17
texts 17
use 17
version_@@ 17
visual@@ 17
word_@@ 17
"3" 16
-= 16
08-@@ 16
14@@ 16
29 16
35@@ 16
4.0 16
9-@@ 16
900@@ 16
AG@@ 16
AUTO@@ 16
Account 16
ArgumentCaptor 16
As 16
Azure@@ 16
Based 16
Branch@@ 16
ByName 16
ByteArray 16
ByteArrayInputStream 16
Canceled@@ 16
Cannot 16
Category@@ 16
Cause 16
Central 16
Char@@ 16
Chat@@ 16
Collation 16
Combination 16
Components 16
Compressed@@ 16
Constructor 16
Control 16
DATA_@@ 16
DFA@@ 16
DO_@@ 16
EL@@ 16
EMPTY 16
ER 16
Env@@ 16
ErrorHandler 16
Extension@@ 16
FIRE@@ 16
Fails 16
Fields@@ 16
FileSize 16
FileUtil 16
Floating@@ 16
Flush 16
Full@@ 16
Goto@@ 16
Handling 16
History 16
IPAddress 16
IR@@ 16
Iterables 16
Journal@@ 16
Keyword 16
LAST@@ 16
LEFT 16
LO@@ 16
LOG_@@ 16
Lear@@ 16
LinkedHashMap 16
Logging 16
MODE_@@ 16
Mac@@ 16
MiniDFSCluster 16
Multiple@@ 16
Oc@@ 16
Occurren@@ 16
Offering@@ 16
Office 16
Optimization@@ 16
Owner 16
Pass@@ 16
PathTo@@ 16
Permission@@ 16
Privacy@@ 16
Program@@ 16
ProgressBar 16
Prop 16
Pub@@ 16
Quantity 16
QueryBuilder 16
Radius 16
Rating 16
Redirect@@ 16
Regex 16
Resolve@@ 16
Right@@ 16
Script 16
Services 16
Setup@@ 16
Suite 16
TY 16
Targets 16
Temporal@@ 16
TextField 16
Throw 16
Throwables 16
Thumbnail@@ 16
Title@@ 16
Tool 16
Transform 16
Tuple 16
Twi@@ 16
UTF_8 16
Usu@@ 16
VI@@ 16
Velocity@@ 16
Well@@ 16
While@@ 16
Workbench@@ 16
Xml@@ 16
YEAR 16
_c 16
act 16
activity@@ 16
addListener 16
additional 16
age@@ 16
ali@@ 16
another@@ 16
anyString 16
ao 16
atory@@ 16
att@@ 16
attr 16
attributeName 16
auth 16
ba@@ 16
behavi@@ 16
bu@@ 16
capture 16
cell 16
channels 16
character 16
combine 16
container@@ 16
country 16
cr@@ 16
currentThread 16
declared@@ 16
define 16
device 16
dm 16
doReturn 16
ear@@ 16
em 16
en 16
engine@@ 16
eval 16
finish@@ 16
forName 16
force@@ 16
function@@ 16
gene 16
getE@@ 16
getFile 16
getHeader@@ 16
getLocation 16
getProperty@@ 16
getUserId 16
getUsername 16
getView@@ 16
ging@@ 16
good 16
hdfs 16
head@@ 16
info@@ 16
ing_@@ 16
instance@@ 16
ip 16
jcr 16
k2 16
le_@@ 16
limit@@ 16
loc 16
location@@ 16
mStart@@ 16
mary_@@ 16
meeting 16
ment@@ 16
ner@@ 16
nextLine 16
notNull 16
one_@@ 16
oo@@ 16
opt@@ 16
ori@@ 16
overwrite 16
owner 16
pa@@ 16
padding 16
pp 16
pred 16
pref@@ 16
primary 16
pro@@ 16
q_@@ 16
r2 16
ra@@ 16
reachable@@ 16
rer 16
router 16
rr 16
runnable 16
running@@ 16
sAs@@ 16
sample 16
setLook 16
shape@@ 16
sign@@ 16
simple@@ 16
solution 16
spec@@ 16
stage 16
ste@@ 16
ster 16
te 16
team 16
tearDown 16
temperature 16
ter@@ 16
then@@ 16
tree@@ 16
turn@@ 16
tx@@ 16
ty_@@ 16
wait@@ 16
wildcard 16
writeBoolean 16
y_@@ 16
24@@ 15
28 15
4_ 15
500 15
AP_@@ 15
ATCH@@ 15
Active 15
Al@@ 15
ApplicationManager 15
Args@@ 15
Authentication 15
Baseline 15
Bud@@ 15
ByteString 15
CO@@ 15
Cb@@ 15
Cli@@ 15
Cluster@@ 15
ComponentName 15
Constraints 15
ContainerUtil 15
ControlFlow@@ 15
DC 15
DIR 15
DISP@@ 15
DOWN 15
Disk@@ 15
Doc 15
ELEMENT_NODE 15
ENGINE_@@ 15
EVENT_@@ 15
Env 15
FileInputStream 15
Fl@@ 15
Forum@@ 15
GE@@ 15
Glob 15
Gre@@ 15
Hi@@ 15
INTER@@ 15
IndexWriter 15
Indices 15
Inside@@ 15
Internal@@ 15
Interpreter 15
Items@@ 15
JTextField 15
KO@@ 15
LET_@@ 15
Languages 15
ListView 15
Lucene@@ 15
MM@@ 15
Manifest 15
Material@@ 15
Mer@@ 15
Mind@@ 15
NotFoundException 15
Number@@ 15
Old@@ 15
Open 15
Outcome 15
Outputs 15
PI 15
PR@@ 15
Pa@@ 15
PackageManager 15
Parser@@ 15
Pass 15
Percent 15
Phone@@ 15
Plugin@@ 15
Predicate 15
Progress 15
Prun@@ 15
RULE_@@ 15
Reason 15
Reserved@@ 15
SE@@ 15
Scope@@ 15
Sh@@ 15
Shard@@ 15
Special@@ 15
Speed 15
St 15
Statistic@@ 15
Stop 15
Struct 15
Student@@ 15
Study@@ 15
Substitute 15
Suites 15
Super@@ 15
Supported 15
TION 15
T_ID@@ 15
Tab 15
Thing 15
ToString 15
Transition@@ 15
TypeInfo@@ 15
Ui 15
Uris 15
V2 15
Validate@@ 15
WAL@@ 15
Wait@@ 15
Widget 15
Year 15
Year@@ 15
_SER@@ 15
abs 15
actionBar 15
ad 15
addContainer@@ 15
annotation@@ 15
ap@@ 15
are@@ 15
arg 15
artifact 15
aux 15
backend@@ 15
bank 15
before@@ 15
called 15
camelContext 15
car 15
cel 15
channel@@ 15
ci@@ 15
color@@ 15
com@@ 15
containsExactly 15
course@@ 15
disconnect 15
draw@@ 15
driver 15
e1 15
environment@@ 15
eps@@ 15
executor 15
expect@@ 15
ez@@ 15
float@@ 15
framework 15
getAddress 15
getClassLoader 15
getDefault 15
getEntity 15
getFieldValue 15
getGroup@@ 15
getInput@@ 15
getNumberOf@@ 15
getPackage@@ 15
getPort 15
getStyle 15
getValues 15
github@@ 15
good@@ 15
ic 15
identity 15
ion@@ 15
iter@@ 15
keep@@ 15
lob@@ 15
login@@ 15
mac 15
make 15
matches@@ 15
memory@@ 15
middle 15
ning@@ 15
number@@ 15
occurred 15
ome 15
onDestroy 15
online@@ 15
ora@@ 15
org@@ 15
originalDepth 15
ort 15
ou@@ 15
overri@@ 15
pa 15
pipeline 15
print 15
processed@@ 15
pul@@ 15
putAll 15
qu@@ 15
random@@ 15
rate 15
reference@@ 15
running 15
runtime@@ 15
runtimeService 15
sAnd@@ 15
sCommand 15
sPanel 15
schema 15
sendMessage 15
sender 15
session@@ 15
setUse@@ 15
single@@ 15
step@@ 15
stone@@ 15
strategy 15
ties 15
title@@ 15
tool@@ 15
trace@@ 15
ty@@ 15
utils 15
uuid 15
vc 15
video@@ 15
which 15
worker 15
x_@@ 15
xmlEvent 15
zu@@ 15
ー@@ 15
"123" 14
"12@@ 14
07@@ 14
0l 14
3_ 14
57@@ 14
6" 14
64 14
AB@@ 14
AM_@@ 14
AN@@ 14
AUTHENTIC@@ 14
AWS@@ 14
Accessor 14
Annotations 14
Article@@ 14
AsString 14
AttributeString 14
Audit@@ 14
Author@@ 14
Back 14
Big@@ 14
Binding@@ 14
Binds 14
ByteBuf 14
Callback@@ 14
Callbacks 14
Cancel 14
Chain 14
Chance 14
Checkbox 14
Closeable@@ 14
Columns@@ 14
Container@@ 14
ContentValues 14
Credentials 14
Delimiter 14
Deprecated 14
Depth@@ 14
Desc@@ 14
Digit 14
Download 14
Draw@@ 14
EX@@ 14
Endpoint@@ 14
Estimated@@ 14
Exec@@ 14
FAMIL@@ 14
Fail@@ 14
Fi@@ 14
FileNotFoundException 14
FrameBuffer 14
Ftp@@ 14
GO_@@ 14
GoogleCloud@@ 14
Groovy@@ 14
Handlers 14
Hazelcast@@ 14
Highlighter 14
INSERT 14
INTERNAL_ERROR 14
INTO 14
InMemory@@ 14
InputFormat 14
Inspec@@ 14
Instanti@@ 14
Instrum@@ 14
Into@@ 14
Inventory@@ 14
Invocation@@ 14
IsNot@@ 14
JTable 14
Join 14
KV 14
Kettle@@ 14
Lab 14
LayoutManager 14
Len 14
Li@@ 14
Lin@@ 14
ListMultimap 14
Lists 14
Located@@ 14
MODE 14
MS 14
Mac 14
Math@@ 14
Mixin 14
Mobile@@ 14
Mono 14
Net@@ 14
Noise 14
OC@@ 14
Operations 14
PackageName 14
Pager 14
Parent@@ 14
Parsed@@ 14
Part@@ 14
Pending@@ 14
Ping@@ 14
Pipeline 14
PreparedStatement 14
Primitive@@ 14
Protection 14
QName 14
RED 14
REQUEST_@@ 14
Radius@@ 14
Real@@ 14
Reg@@ 14
Regions 14
Rel@@ 14
Role@@ 14
Roll@@ 14
SET_@@ 14
SSL@@ 14
STANDARD 14
STOP 14
SYSTEM_@@ 14
Scale 14
SelectionModel 14
SequenceNumber 14
SetProperty 14
Signing@@ 14
Span@@ 14
Statement@@ 14
StatusCode 14
Struc@@ 14
TH@@ 14
Tag@@ 14
Termination@@ 14
Translate@@ 14
Validate 14
VariableName 14
Views@@ 14
Volume@@ 14
WORD 14
Ware@@ 14
Warning@@ 14
Wh@@ 14
XM@@ 14
__isset_bitfield 14
access 14
account 14
ada@@ 14
arg1 14
arraycopy 14
ash@@ 14
assigned@@ 14
attach@@ 14
av 14
bin@@ 14
boot@@ 14
bucket@@ 14
callable 14
cam@@ 14
candidates 14
cc 14
cel@@ 14
cf 14
chain@@ 14
code@@ 14
combine@@ 14
come 14
commandName 14
compressed@@ 14
contacts 14
cop@@ 14
currentState 14
d1 14
dat@@ 14
def@@ 14
doesn 14
ec@@ 14
em@@ 14
ented@@ 14
equal 14
extension 14
fat@@ 14
flags 14
gem@@ 14
getA@@ 14
getAction 14
getBy@@ 14
getColumnIndex 14
getDescription 14
getDisplayName 14
getField 14
getHeaders 14
getHost@@ 14
getItem@@ 14
getOrder@@ 14
getRoot 14
getRow@@ 14
getStartOffset 14
getTest@@ 14
getTool@@ 14
getTotal@@ 14
getUn@@ 14
getWindow 14
getter@@ 14
ha@@ 14
hour 14
ht@@ 14
httpMethod 14
ig 14
inter@@ 14
interpreter 14
ip@@ 14
isClosed 14
isSelected 14
item1 14
itemCount 14
itemId 14
lastModified 14
lat 14
lemented@@ 14
lista 14
ll@@ 14
lon 14
lower@@ 14
mActive@@ 14
member 14
mi 14
mis@@ 14
mob@@ 14
modi@@ 14
modified@@ 14
multimap 14
noun@@ 14
obtain@@ 14
old 14
onStart 14
os@@ 14
pl@@ 14
plans 14
pool@@ 14
pop 14
possible@@ 14
prepareStatement 14
pres@@ 14
printf 14
processId 14
provider@@ 14
proxim@@ 14
redraw 14
reference 14
repl@@ 14
replication@@ 14
retrieve 14
ro 14
sAt@@ 14
sList 14
self@@ 14
serialize 14
serverName 14
setChecked 14
setToolTipText 14
shadow 14
sheets 14
sl 14
space 14
species 14
stm 14
storage 14
substitution 14
synap@@ 14
timezone 14
tive@@ 14
toLowerCase 14
transform 14
um@@ 14
v4 14
vertex@@ 14
waitFor@@ 14
wrap 14
yyyy@@ 14
"0.@@ 13
.0 13
0x61 13
0x62 13
0x63 13
200 13
27 13
27@@ 13
37@@ 13
400 13
API 13
AVAILABLE 13
Absolute@@ 13
Ag@@ 13
Anchor 13
Arg 13
Asset@@ 13
Assigned 13
Availability@@ 13
Bo 13
ByIndex 13
CH@@ 13
CHANGE_@@ 13
CHUNK_SIZE 13
Car@@ 13
Checks 13
Clean@@ 13
CodeBlock 13
Concaten@@ 13
Configure@@ 13
Correction 13
Criterion 13
Cut@@ 13
DESCRIPTION 13
DO@@ 13
Day 13
Decla@@ 13
Delegate@@ 13
Delete 13
EC@@ 13
ES 13
Expectations 13
FIELD_DESC 13
FactHandle 13
Failed@@ 13
Fast@@ 13
FileDescriptor 13
Filtered@@ 13
FragmentManager 13
Game@@ 13
Gson 13
Help 13
Helper@@ 13
I32 13
IDENTI@@ 13
INFO 13
ITEM 13
Illegal@@ 13
Init 13
Intent@@ 13
Inventory 13
JOB_@@ 13
LANG_@@ 13
Layer 13
Le@@ 13
Leaf@@ 13
Loading 13
MAX 13
MediaPlayer@@ 13
Merge@@ 13
Moder@@ 13
Month@@ 13
Mouse@@ 13
Neg@@ 13
Notification 13
Ops 13
Ops@@ 13
PACKAGE_@@ 13
Pan@@ 13
Parcel@@ 13
Parents 13
Photo 13
Print@@ 13
Priority@@ 13
Prompt 13
Props 13
PsiElement@@ 13
Public@@ 13
PublicKey 13
Push@@ 13
ROOT 13
Received@@ 13
Records 13
Remove 13
Required@@ 13
ResolveResult 13
SAML@@ 13
Scalar@@ 13
Secret 13
Sender 13
Shards 13
Shell@@ 13
Snapshot 13
Ssl@@ 13
Strings 13
TIMEOUT 13
TOKEN 13
TY_@@ 13
Term 13
Texture 13
The@@ 13
TimeSeries 13
TimeZone 13
Trace@@ 13
Tran@@ 13
TransMeta 13
Traversal@@ 13
TreeMap 13
Tur@@ 13
Twe@@ 13
Up@@ 13
Validation@@ 13
W 13
WATER 13
WebView 13
_SERVICE 13
abc 13
acao 13
actionName 13
apply@@ 13
arities 13
assertNotEquals 13
asset 13
ate 13
ation_@@ 13
atures 13
author@@ 13
azure@@ 13
b2 13
b3 13
bean 13
binder 13
bounding@@ 13
child_@@ 13
cion@@ 13
cloned@@ 13
col 13
collected 13
cols 13
column@@ 13
combo@@ 13
connect@@ 13
consumers 13
createIndex 13
customer@@ 13
d2 13
datano@@ 13
defined@@ 13
destination 13
destroy 13
diff 13
dm@@ 13
docker 13
dom 13
dots 13
dp 13
dur@@ 13
enable 13
entityId 13
ento 13
extent 13
faces@@ 13
factory@@ 13
failure@@ 13
fetch@@ 13
findBy@@ 13
findByThrift@@ 13
game 13
getBoolean 13
getChild@@ 13
getCluster@@ 13
getComponent 13
getD@@ 13
getDuration 13
getID 13
getId@@ 13
getIndex 13
getM@@ 13
getModel 13
getQuery@@ 13
getResourceAsStream 13
getServer 13
getUrl 13
getVersion 13
got 13
gz 13
hashcode 13
hierarchy 13
history 13
home 13
idence 13
ignore 13
impl 13
isSame@@ 13
js@@ 13
keyName 13
logical@@ 13
lower 13
mac@@ 13
mail@@ 13
may 13
mess 13
metadata@@ 13
mixin 13
move@@ 13
native@@ 13
nb@@ 13
no_@@ 13
non 13
not@@ 13
nr@@ 13
num_@@ 13
off 13
ood 13
origin 13
paint@@ 13
percent@@ 13
phone@@ 13
platform@@ 13
pri@@ 13
primary@@ 13
proj 13
projectName 13
publicKey 13
python 13
r1 13
redu@@ 13
registered@@ 13
replication 13
require@@ 13
res2 13
rest@@ 13
rhs@@ 13
sFile 13
sId 13
seed 13
segment 13
selection 13
selector@@ 13
setAdapter 13
setDisplay@@ 13
setProperty@@ 13
shard 13
shuff@@ 13
singletonList 13
standard@@ 13
star@@ 13
startDate 13
stron@@ 13
system 13
taskId 13
testNo@@ 13
testing 13
that@@ 13
tle@@ 13
trade 13
ul@@ 13
unexpected 13
unknown 13
unregister@@ 13
upper 13
versions 13
view_@@ 13
visited 13
web 13
white@@ 13
writeFieldBegin 13
writeFieldEnd 13
zip 13
0.00@@ 12
00 12
29@@ 12
39@@ 12
44 12
65@@ 12
89@@ 12
ACE_@@ 12
AGENT_@@ 12
ALI@@ 12
Accessible@@ 12
ActionListener 12
Activ@@ 12
Activities 12
Algorithm 12
Alias 12
ArrayUtil 12
Assign@@ 12
Attributes@@ 12
Available@@ 12
BASE@@ 12
BO 12
Based@@ 12
Bolt 12
Boo@@ 12
Border@@ 12
Boundary@@ 12
Buck@@ 12
Buffer@@ 12
BufferSize 12
BufferedImage 12
ByPath 12
Calcul@@ 12
Camel@@ 12
Capacity@@ 12
Card@@ 12
CastException 12
Categ@@ 12
Certificate 12
Cmd@@ 12
Commun@@ 12
Concurrency 12
Connect 12
Const@@ 12
Constructor@@ 12
Contr@@ 12
Css@@ 12
DA 12
DEBUG 12
DELTA 12
DataProvider 12
Def@@ 12
Dependencies@@ 12
Dispatch@@ 12
Distributed@@ 12
Driver@@ 12
EMPTY_@@ 12
EPSILON 12
Eclipse@@ 12
ElementType 12
ExecutorService 12
FLOW 12
FS_@@ 12
F_@@ 12
Fail 12
Fault 12
Flat@@ 12
Focus@@ 12
Fol@@ 12
GONE 12
Github@@ 12
Good 12
Got 12
HI@@ 12
Ham@@ 12
Heur@@ 12
Hit 12
Hook@@ 12
HttpClient@@ 12
HttpResponse@@ 12
ING 12
ING_@@ 12
Inflater 12
Instances@@ 12
Interceptor 12
Interface@@ 12
Join@@ 12
KEEP_@@ 12
Links 12
Lo@@ 12
Logic@@ 12
Lookup@@ 12
MAGIC 12
MBean@@ 12
MISSING 12
Malformed@@ 12
Manifest@@ 12
MessageSize 12
Meter@@ 12
Mil@@ 12
Min 12
Mod 12
More@@ 12
Names@@ 12
Normally 12
ObjectMapper 12
Other@@ 12
PART_@@ 12
PORT 12
PathVariable 12
Pause@@ 12
Payment@@ 12
Phy@@ 12
ProgressDialog 12
Protos 12
Provi@@ 12
Proxim@@ 12
PsiFile 12
Regs 12
Released 12
Removed 12
Reply@@ 12
Report@@ 12
Runner@@ 12
Runtime 12
SINGLE 12
SL@@ 12
SS_@@ 12
SUB@@ 12
ScriptEngine 12
SearchResult 12
SecurityManager 12
Seek@@ 12
Serialization@@ 12
SetType 12
ShardId 12
Share@@ 12
Skip@@ 12
Slider 12
Sort@@ 12
Specification 12
Split 12
Steps@@ 12
Synap@@ 12
TY@@ 12
Tenant 12
Tenant@@ 12
TestRunner 12
TestUtil 12
Thumb@@ 12
Ti@@ 12
Tile@@ 12
Trie@@ 12
Two 12
Txn@@ 12
TypeId 12
UT@@ 12
Unknown@@ 12
Usages 12
UserId 12
VIEW 12
Validation 12
Vide@@ 12
WARN 12
Weather@@ 12
Writable@@ 12
YO@@ 12
[@@ 12
_SUB@@ 12
_b@@ 12
_i@@ 12
_id 12
_to_@@ 12
ability 12
addView 12
additional@@ 12
als@@ 12
alt 12
ants 12
asMap 12
assertContains 12
assertSame 12
asso 12
attempt 12
background@@ 12
best@@ 12
between 12
bias 12
bit 12
black@@ 12
bolt 12
book@@ 12
cast 12
cb 12
checkArgument 12
choice 12
classifier 12
community 12
connector 12
createDefault@@ 12
ction@@ 12
d6 12
defValue 12
definition 12
delay 12
detector 12
dim 12
direct 12
div 12
down@@ 12
dup@@ 12
enclosing@@ 12
errorMessage 12
exception@@ 12
fc@@ 12
fileName@@ 12
fn@@ 12
fq@@ 12
gan@@ 12
gd 12
getCell@@ 12
getDevice@@ 12
getEnd@@ 12
getImage@@ 12
getItem 12
getItems 12
getList 12
getList@@ 12
getLong@@ 12
getMin@@ 12
getModule@@ 12
getNodeId 12
getObject@@ 12
getParent@@ 12
getProduct@@ 12
getStringValue 12
getText@@ 12
getUse@@ 12
gi@@ 12
gp@@ 12
grid@@ 12
groovy@@ 12
gt 12
ij 12
ingState 12
invokeLater 12
isActive 12
ization@@ 12
jobID 12
l1 12
labels 12
launch 12
li 12
mData@@ 12
manual@@ 12
mes 12
mm 12
module@@ 12
more 12
myProject@@ 12
named 12
names 12
ness@@ 12
newArrayList 12
nio 12
nodes 12
numItems 12
nums 12
ob@@ 12
occurren@@ 12
offset@@ 12
onResume 12
optionals 12
ouch 12
ous 12
pName 12
pad 12
parallelism 12
parseDouble 12
paths 12
plat 12
predic@@ 12
priority 12
processed 12
progressBar 12
propagate@@ 12
qb 12
qc 12
radix 12
reason@@ 12
repo@@ 12
reporter 12
required 12
resourceGroupName 12
returns 12
revs 12
rootElement 12
roots 12
rp 12
rules 12
sb@@ 12
searcher 12
sequ@@ 12
setAddress 12
setC@@ 12
setColor 12
setData 12
setData@@ 12
setUser@@ 12
sign 12
sis@@ 12
so 12
soft@@ 12
song 12
sqrt@@ 12
suite@@ 12
tenant 12
term@@ 12
testCase 12
testFile 12
tests 12
thumbnail 12
timed_@@ 12
titles 12
tpl 12
trigger 12
tting@@ 12
two@@ 12
um 12
user_@@ 12
usu@@ 12
ven@@ 12
video 12
vr 12
with_@@ 12
wrapped@@ 12
zipFile 12
*= 11
/* 11
06@@ 11
0D 11
101 11
18@@ 11
1l 11
2d@@ 11
33 11
400@@ 11
45 11
48@@ 11
77@@ 11
8.0 11
87@@ 11
AL_@@ 11
ARGS_@@ 11
AS_@@ 11
Allow@@ 11
Alpha 11
Another@@ 11
Arguments 11
Armor 11
AssertionError 11
Audio 11
BA@@ 11
BE@@ 11
Background@@ 11
Basic 11
BeforeClass 11
Benchmark 11
Binder 11
Board@@ 11
Bool 11
Both 11
Broker 11
Business 11
Changes 11
Compute@@ 11
Connec@@ 11
ConnectionFactory 11
Connections 11
Creating 11
DATA@@ 11
Decorator 11
Deep 11
Degree@@ 11
Dest@@ 11
Disable@@ 11
Dot@@ 11
Dra@@ 11
ES_@@ 11
E_@@ 11
Entitlement@@ 11
Estab@@ 11
EventHandler@@ 11
Events@@ 11
ExecutionException 11
Existing@@ 11
Export@@ 11
Exported@@ 11
Expr@@ 11
Extra@@ 11
FLAGS 11
Facing 11
Fatal@@ 11
Feedback@@ 11
FieldMapper 11
Fixed@@ 11
Folder@@ 11
FolderPath 11
Fore@@ 11
FrameLayout 11
FromFile 11
Graphics 11
GroupName 11
Grow@@ 11
Grp 11
INPUT_@@ 11
IO_@@ 11
Implementation 11
IndexType 11
Indexes 11
InfoType 11
Inject 11
Inner 11
Java 11
Js@@ 11
JsonNode 11
LA@@ 11
LABEL 11
LANGU@@ 11
LONG 11
Lat@@ 11
Logged@@ 11
MILLIS 11
MONTH 11
MP@@ 11
MetaData@@ 11
Modifier 11
Money 11
NOT_FOUND 11
Nam@@ 11
OF_@@ 11
OM@@ 11
OPTION 11
Ob@@ 11
OfMonth 11
Padding 11
ParameterException 11
Pixels 11
Pod@@ 11
Port@@ 11
Prepared 11
Product@@ 11
Promise 11
ProtocolException 11
PsiClass 11
Q_@@ 11
Quorum@@ 11
RED@@ 11
REPL@@ 11
Reflection@@ 11
Ren@@ 11
Render@@ 11
RequestContext 11
ReturnType 11
Rx@@ 11
SCRIP@@ 11
SENSOR_@@ 11
SEPARATOR 11
SERVICE_@@ 11
SSF@@ 11
Sc@@ 11
Sched@@ 11
Scroll 11
Second@@ 11
Separator 11
Setting 11
Should@@ 11
Simple 11
Site@@ 11
Soy@@ 11
Spi 11
StartOf@@ 11
StorageException 11
Switch 11
SystemProperties 11
TER_@@ 11
THRI@@ 11
Temperature 11
Theme 11
ThreadState 11
Tipo@@ 11
Transfer 11
Trip@@ 11
Turtle 11
TypeInfo 11
UR@@ 11
Until 11
V1 11
V2@@ 11
WA@@ 11
WIDTH 11
Wall@@ 11
Zone 11
_source 11
aa 11
ada 11
amazonaws 11
amp 11
anyTimes 11
apis 11
arg2 11
ary@@ 11
asl@@ 11
ast 11
attrs 11
authoriz@@ 11
auxili@@ 11
avg 11
b5 11
background 11
baz 11
bm@@ 11
bmp 11
bootstrap 11
bound 11
camund@@ 11
candidate 11
certificates 11
chrome@@ 11
chunk 11
ci 11
circle@@ 11
cleanup@@ 11
clin@@ 11
clone@@ 11
composite 11
console 11
constructor@@ 11
contents 11
convertView 11
converter 11
cookie 11
core 11
correction 11
createMock 11
cross@@ 11
cube@@ 11
cur 11
decess@@ 11
delegate@@ 11
der 11
deserialize 11
df 11
dfs@@ 11
elementType 11
elt 11
enc@@ 11
ensemb@@ 11
ent 11
env@@ 11
errors 11
est@@ 11
execution 11
external 11
extras 11
failure 11
fe@@ 11
fic@@ 11
fied@@ 11
fileInfo 11
fill 11
fis 11
getAttribute@@ 11
getColumn 11
getConfiguration@@ 11
getContainer 11
getDatabase@@ 11
getLine@@ 11
getMenu@@ 11
getMillis 11
getPosition 11
getPost@@ 11
getRandom@@ 11
getScope 11
getService@@ 11
getStart@@ 11
getStatusCode 11
getSupport@@ 11
getSystemService 11
getValueType 11
getX@@ 11
icon 11
ie 11
ima 11
installer 11
integer 11
ir@@ 11
isDisposed 11
isNew@@ 11
isNot@@ 11
isOn@@ 11
isValid 11
isValid@@ 11
jdbc 11
je 11
lineNumber 11
lish@@ 11
listed@@ 11
locale 11
m1 11
m2 11
mails 11
maps 11
marks 11
mb 11
mp 11
mq@@ 11
mr 11
na 11
needed@@ 11
network 11
onCreateOptionsMenu 11
oop 11
optional@@ 11
other@@ 11
ous@@ 11
pack 11
package 11
pause@@ 11
permissions 11
phases 11
physical 11
pk@@ 11
platform 11
product@@ 11
projects 11
py 11
registr@@ 11
release 11
removed 11
replic@@ 11
repo 11
rootView 11
round@@ 11
rowIndex 11
rr@@ 11
rt 11
sFrom@@ 11
s_per_@@ 11
san@@ 11
sas@@ 11
segments 11
sendBodyAndHeader 11
series@@ 11
server_@@ 11
serviceName 11
sessionId 11
setContent@@ 11
setItem 11
setN@@ 11
setSelection 11
setState 11
shader@@ 11
single 11
singleResult 11
sms@@ 11
sn 11
tId 11
thread@@ 11
tificate@@ 11
tile@@ 11
tipo 11
tokenizer 11
tokens 11
toolbar 11
tor 11
trans 11
transfer@@ 11
tree 11
tuple@@ 11
tv 11
ue@@ 11
ui@@ 11
ulation 11
up 11
valid 11
vox@@ 11
wire@@ 11
world 11
writeTo 11
your 11
~ 11
し@@ 11
"2.@@ 10
0.5@@ 10
23@@ 10
2L 10
3000 10
41 10
46@@ 10
47@@ 10
48 10
49@@ 10
4j@@ 10
5" 10
5555@@ 10
88@@ 10
89 10
AS 10
AdapterView 10
AddTo@@ 10
Append@@ 10
Apps 10
Argument 10
Artic@@ 10
Aspect 10
Asset 10
Assignment@@ 10
Az@@ 10
BB@@ 10
BINDING 10
BLOCK 10
BU@@ 10
BY_@@ 10
Base64 10
Below 10
BlockState 10
Board 10
Bridge@@ 10
BytesRef 10
CES_@@ 10
CamelContext 10
Cash@@ 10
Changed@@ 10
Chars 10
Chunks 10
Clicked 10
Cols 10
ComboBox 10
Comma 10
ConfigurationException 10
Connected 10
Connectivity@@ 10
Consum@@ 10
Continue@@ 10
Coordinator 10
Course 10
Currency 10
DN 10
DOM@@ 10
DataService 10
Dataset 10
Datasour@@ 10
DateFormat 10
Datum@@ 10
Dead@@ 10
Deleted@@ 10
Delta 10
Detect@@ 10
Doc@@ 10
Down 10
EXEC@@ 10
Each@@ 10
ErrorCode 10
Eval 10
Explorer 10
Extended@@ 10
FLAG_@@ 10
FT 10
FileInfo 10
FileType 10
FileUtils 10
Four@@ 10
GL@@ 10
Global 10
Have@@ 10
HazelcastInstance 10
Hint 10
IF@@ 10
IMPLEMENTED 10
INDEX 10
IOUtils 10
IT 10
IfNeeded 10
IfNot@@ 10
ImmutableSortedSet 10
Inline@@ 10
Insets 10
Intercept@@ 10
Issuer@@ 10
Iterable@@ 10
Jvm@@ 10
KeyValue@@ 10
LING 10
Land@@ 10
Launcher 10
Learn@@ 10
Light@@ 10
Linear 10
Listeners 10
Live@@ 10
Local 10
Logging@@ 10
MB 10
MU@@ 10
Me 10
Members 10
Messaging@@ 10
Mocks 10
Multipart@@ 10
NUMBER 10
NameSpace 10
Namespace@@ 10
NoSuch@@ 10
Numbers 10
OBJECT 10
ORI@@ 10
ORIGIN@@ 10
OR_@@ 10
Objec@@ 10
ObjectHelper 10
ObjectType 10
Offline@@ 10
Origin@@ 10
Outline 10
POR@@ 10
PROPERTIES 10
PagerAdapter 10
Pages 10
ParentElement 10
Partitioned@@ 10
Party 10
Pay@@ 10
Playing 10
Positive@@ 10
Potential@@ 10
Price 10
Procedure@@ 10
Promp@@ 10
Provided 10
PsiUtil 10
Pv@@ 10
QueryString 10
RD@@ 10
RI@@ 10
RUNNING 10
Race 10
Reach@@ 10
ReaderContext 10
RecordReader 10
Redis@@ 10
References@@ 10
Reg 10
Regi@@ 10
Remin@@ 10
Rep@@ 10
Replacement@@ 10
ResourceLoader 10
ResponseHandler 10
Result_@@ 10
Results@@ 10
Routing@@ 10
SCHEDUL@@ 10
SDK_INT 10
SEVERE 10
SU@@ 10
SVG_@@ 10
Safe@@ 10
Samples 10
Scene 10
Se@@ 10
Secret@@ 10
Skip 10
Song 10
Sound 10
Spaces 10
Span 10
StackTrace 10
Star 10
Su@@ 10
Subscribe 10
Subsystem 10
Surface 10
TE@@ 10
TIME_@@ 10
TOC 10
TRA@@ 10
TRAI@@ 10
TS_@@ 10
Tables 10
Ten@@ 10
Tex 10
Tier@@ 10
TipText 10
Tools@@ 10
TypeAdapter 10
UP 10
URISyntaxException 10
Unsigned@@ 10
Updated@@ 10
Us@@ 10
UserModel 10
Using@@ 10
Viewer 10
Warning 10
Watch@@ 10
Workspace@@ 10
Ya@@ 10
ZipFile 10
Zone@@ 10
_iter@@ 10
_log 10
absolute 10
addChild 10
admin 10
ase@@ 10
auth@@ 10
authentication 10
bak 10
based 10
batchSize 10
beginTransaction 10
bet@@ 10
bir@@ 10
blocking 10
blue@@ 10
border@@ 10
bottom 10
broadcast@@ 10
categories 10
certificate@@ 10
character@@ 10
checker 10
cipher@@ 10
click 10
cmd@@ 10
codes 10
combin@@ 10
comp 10
compare 10
completed 10
constructor 10
content_@@ 10
counts 10
cp@@ 10
createFrom@@ 10
createNew@@ 10
critical@@ 10
cumulative@@ 10
currentPosition 10
currentTime 10
dataContext 10
databaseName 10
dc@@ 10
decor@@ 10
ded 10
delimiter 10
device@@ 10
dfs 10
disabled 10
download 10
e2 10
ech@@ 10
el 10
emp@@ 10
encoder 10
encoding 10
enter@@ 10
enums 10
epsilon 10
es_@@ 10
exclusive 10
exec 10
existing 10
fair 10
features 10
fileType 10
findChild 10
finished 10
flatMap 10
fully 10
func_@@ 10
future 10
g2d 10
generate 10
getAnnotation 10
getArguments 10
getAuth@@ 10
getClassName 10
getComponent@@ 10
getHeader 10
getHost 10
getIndex@@ 10
getModifiers 10
getNetwork@@ 10
getNextToken 10
getNode@@ 10
getNumber 10
getOutput@@ 10
getPackageName 10
getParam 10
getParameter@@ 10
getVersion@@ 10
google@@ 10
hab@@ 10
half@@ 10
he@@ 10
help 10
hex 10
hibernate 10
hoo@@ 10
hostname 10
ices 10
idx@@ 10
ii 10
imal 10
into 10
isDefault@@ 10
ited@@ 10
item2 10
its 10
ize@@ 10
jar 10
journal@@ 10
kafka@@ 10
ke 10
ked 10
kg@@ 10
king 10
l2 10
lies 10
mCurrent@@ 10
mId 10
mName 10
mber@@ 10
ments 10
mer@@ 10
metry@@ 10
mi@@ 10
minutes 10
mu 10
offer 10
onOptionsItemSelected 10
onPost@@ 10
ops 10
pType 10
panel 10
parseBoolean 10
part@@ 10
person 10
plugin@@ 10
po 10
pop@@ 10
possible 10
program 10
progressBar@@ 10
putExtra 10
qi 10
quant@@ 10
rd@@ 10
realm@@ 10
reason 10
regi@@ 10
registered 10
removeAll 10
rename@@ 10
report 10
s0 10
sObject@@ 10
sResult 10
scan@@ 10
scri@@ 10
se_@@ 10
sensor 10
setContext 10
setRe@@ 10
setSub@@ 10
setX@@ 10
sh@@ 10
signed@@ 10
sli@@ 10
sm@@ 10
socket 10
some 10
speci@@ 10
specified 10
spell@@ 10
strip@@ 10
substitu@@ 10
subtitle 10
suggestion 10
suggestions 10
supp@@ 10
symbol@@ 10
ta 10
tenant@@ 10
th@@ 10
timeStamp 10
ting 10
transition 10
transport 10
tu@@ 10
tweet 10
ug@@ 10
union 10
ur 10
uri@@ 10
waiting 10
way@@ 10
weather@@ 10
webview 10
what 10
without@@ 10
yu@@ 10
"3 9
2022 9
256 9
2l 9
3.@@ 9
300 9
42 9
44@@ 9
58 9
59@@ 9
ABLE 9
AGE@@ 9
ASN1@@ 9
ATOR_@@ 9
Acc 9
Adjac@@ 9
Already@@ 9
Animation@@ 9
Archive@@ 9
Area 9
AtomicReference 9
Attach@@ 9
BAR_@@ 9
BatchSize 9
Bi@@ 9
Bolt@@ 9
Border 9
Bucket 9
ByteArrayOutputStream 9
CLIENT_@@ 9
COMPONENT_@@ 9
COR@@ 9
CS 9
Cancelled 9
Case 9
ChannelHandler 9
CharSequence 9
Chron@@ 9
Cipher@@ 9
ClassLoader@@ 9
ClassNotFoundException 9
Clause 9
Clean 9
Coder 9
Comparator@@ 9
ConfigurationProperties 9
Conflict@@ 9
Connecting 9
Constants@@ 9
Cont@@ 9
ContentType 9
Controller@@ 9
Converters 9
DECI@@ 9
DED 9
DEFAULT 9
DFS@@ 9
DRAW_@@ 9
DataTable 9
DatabaseMeta 9
Databases 9
Declaration@@ 9
Decor@@ 9
Defaults 9
Description@@ 9
Detector 9
Determin@@ 9
Devices 9
Di@@ 9
Dispatcher 9
DisplayName 9
Dispose 9
Documents 9
Dur@@ 9
Duration@@ 9
ENCE_@@ 9
ES@@ 9
Edition 9
Embed@@ 9
EmptyString 9
Enabled@@ 9
Evaluate 9
EventListener@@ 9
Example 9
Exec 9
Exists@@ 9
Extent 9
Extract@@ 9
FFFF@@ 9
FILE_NAME 9
FTP@@ 9
Facade 9
Feature 9
Feature@@ 9
Finally 9
Finish@@ 9
Font@@ 9
Foreground 9
Gateway@@ 9
Generator@@ 9
GroupId 9
HORIZONTAL 9
HeaderView 9
Headers@@ 9
Hibernate@@ 9
Highlight@@ 9
Hour@@ 9
Hy@@ 9
IBinder 9
IMPORT_@@ 9
INT 9
INT@@ 9
ISO@@ 9
IdList 9
Idle@@ 9
Idx 9
Igno@@ 9
IllegalAccessException 9
Inclu@@ 9
Increment 9
Interactions 9
IsValid 9
Iso@@ 9
ItemType 9
Iter@@ 9
JOIN 9
JOptionPane 9
Keeper@@ 9
Keywords 9
Knowledge@@ 9
LIKE 9
LINE 9
LINK@@ 9
LONG_@@ 9
Launch@@ 9
Leaves 9
Lifecycle@@ 9
Locked 9
MAP 9
MESSAGE_@@ 9
MIN_VALUE 9
MM 9
Master@@ 9
MetaData 9
Migr@@ 9
Modality@@ 9
Monitoring@@ 9
NBT 9
NO@@ 9
NOTE_@@ 9
NS 9
Net 9
NotNull@@ 9
Nothing 9
Notifier 9
OPTIONS 9
Objs 9
Observable@@ 9
Online@@ 9
Opened 9
Overwrite 9
PA@@ 9
PREFIX_@@ 9
Passed 9
Pe@@ 9
Pop@@ 9
Portlet@@ 9
Post 9
Previous@@ 9
PrintStream 9
Proc 9
Projects 9
Publisher 9
Pul@@ 9
Qry@@ 9
QueryParam 9
Quote 9
RC 9
REFERENCE 9
REF_@@ 9
REGION@@ 9
REGISTR@@ 9
RELA@@ 9
REPLIC@@ 9
Reader@@ 9
Rep 9
Req 9
Res@@ 9
ResponseCode 9
RestRequest 9
Restart 9
Restore@@ 9
Routing 9
SHADOW_@@ 9
SION_@@ 9
SQLiteDatabase 9
SUCCE@@ 9
Sch@@ 9
Sec 9
Security 9
Select 9
Sen@@ 9
Serialization 9
ServiceType 9
Shell 9
Single 9
So@@ 9
Solution 9
Sort 9
Spec@@ 9
Split@@ 9
Sq@@ 9
Static@@ 9
Stored@@ 9
StreamId 9
Suggestion 9
Surface@@ 9
Sync 9
TEXT_@@ 9
TRUE 9
TX_@@ 9
TZ 9
Team@@ 9
Threads 9
Three 9
ToRemove 9
Toggle@@ 9
Too@@ 9
TooMany@@ 9
Topology@@ 9
TouchEvent 9
Transactional 9
Traversal 9
Trigger@@ 9
TypeReference 9
US 9
UnsupportedEncodingException 9
Ur@@ 9
VBox 9
VE_@@ 9
Visible 9
Walker 9
When 9
X_@@ 9
Yes 9
You 9
ZoneId 9
_SERVICE_@@ 9
_idx 9
_p@@ 9
aClass 9
abstract@@ 9
accumulate 9
aces 9
ach 9
actionId 9
addAttribute 9
addItem 9
addLast 9
addParameter 9
addTo@@ 9
addr 9
adi@@ 9
am 9
annot@@ 9
answer@@ 9
app_name 9
ard@@ 9
arena@@ 9
artifact@@ 9
async@@ 9
atable 9
attempts 9
atu@@ 9
authenticator 9
b4 9
b8 9
back@@ 9
bad 9
bag 9
baos 9
baseDir 9
begin 9
behavior 9
bool@@ 9
builder@@ 9
ca 9
cal@@ 9
calendar 9
called@@ 9
chant@@ 9
char@@ 9
checkpoint 9
completion 9
cond@@ 9
connections 9
continu@@ 9
cover 9
cre@@ 9
createTest@@ 9
creation@@ 9
currentNode 9
datum 9
dayOfWeek 9
decoder 9
detach 9
detail 9
df@@ 9
dt1 9
dt@@ 9
edValue 9
effective@@ 9
emptySet 9
encryption@@ 9
ency@@ 9
er_@@ 9
ers@@ 9
etype@@ 9
evaluate 9
executeUpdate 9
exp 9
fe 9
fin@@ 9
fk@@ 9
fold@@ 9
fun@@ 9
func@@ 9
getB@@ 9
getChannel 9
getConnection 9
getDate@@ 9
getDisplay@@ 9
getElementType 9
getEntity@@ 9
getF@@ 9
getFactory 9
getFieldName 9
getFlow@@ 9
getIdentifier 9
getInteger 9
getObject 9
getOr@@ 9
getParams 9
getProvider 9
getRemote@@ 9
getRow 9
getTable 9
getTable@@ 9
getTime 9
getTo@@ 9
given 9
given@@ 9
grant@@ 9
ha 9
high 9
histogram@@ 9
i3 9
incrementAndGet 9
indicator 9
information 9
interpret 9
javac@@ 9
ke_@@ 9
land@@ 9
launch@@ 9
layout_@@ 9
leans 9
light 9
listView 9
loadClass 9
logger@@ 9
lst 9
mContext 9
mIs@@ 9
mOn@@ 9
mView@@ 9
mainten@@ 9
management 9
management@@ 9
marking 9
maxVal 9
med@@ 9
meter@@ 9
mf 9
minator 9
mkdirs 9
mobile 9
moduleName 9
msgId 9
mutation@@ 9
ne 9
needed 9
negative 9
newEvent 9
odd 9
oldValue 9
ometer 9
onSave@@ 9
ong@@ 9
orig 9
orig@@ 9
ouse@@ 9
outline 9
override@@ 9
pState 9
pack@@ 9
pairs 9
parentId 9
perform@@ 9
ph@@ 9
pi@@ 9
pkg@@ 9
plot@@ 9
populate@@ 9
posed@@ 9
predicate 9
preference 9
principal 9
proj@@ 9
propagate 9
psi 9
pstmt 9
queryBuilder 9
raw 9
readOnly 9
readValue 9
rectangle 9
registration@@ 9
room@@ 9
round 9
runtime 9
sOn@@ 9
saniti@@ 9
se 9
secrets 9
sel 9
ses@@ 9
setAction 9
setContent 9
setCurrent@@ 9
setField 9
setFilter@@ 9
setImage 9
setMap@@ 9
setModel 9
setPassword 9
setSelected 9
setVisible 9
sid 9
signature@@ 9
sizes 9
slider 9
startup@@ 9
steps 9
stor@@ 9
stu@@ 9
stub 9
subst@@ 9
support@@ 9
supported@@ 9
sync 9
take@@ 9
tem 9
test1" 9
text_@@ 9
that_@@ 9
this_@@ 9
toDate 9
toJson 9
toSet 9
translation@@ 9
tuple 9
u1 9
ud@@ 9
unwrap 9
utter@@ 9
val@@ 9
varname 9
vcs 9
ver 9
vers@@ 9
views 9
visor 9
vp 9
weather 9
window@@ 9
wrap@@ 9
writeObject 9
yet 9
yyyy 9
zoo@@ 9
zzle 9
拟@@ 9
模@@ 9
， 9
"19@@ 8
02@@ 8
03@@ 8
08@@ 8
0x3@@ 8
1.0@@ 8
1.0F 8
100@@ 8
1e-@@ 8
200@@ 8
2048 8
28@@ 8
34567@@ 8
47 8
69@@ 8
:@@ 8
ABO@@ 8
AC@@ 8
ALL_@@ 8
ATTRIBUTE 8
AT_@@ 8
AV@@ 8
Alive 8
Annotated@@ 8
Appender 8
Arena 8
Assignment 8
AtomicBoolean 8
Attribu@@ 8
Author 8
BACK 8
BRAN@@ 8
Backend@@ 8
Bit 8
Blocking@@ 8
Bloo@@ 8
Branch 8
Broadcast@@ 8
CI@@ 8
COLLE@@ 8
COUN@@ 8
CREATE_@@ 8
CTION_@@ 8
Cases 8
ClassName@@ 8
Cleanup 8
Clip@@ 8
Cloneable 8
Comment@@ 8
Compressed 8
ConditionalOn@@ 8
Configurable@@ 8
Console 8
Constraint 8
Constraint@@ 8
ContextFactory 8
Continue 8
Controls 8
Convert 8
Correc@@ 8
Corrup@@ 8
Cross@@ 8
Cru@@ 8
Cube@@ 8
DAY 8
DFSTestUtil 8
DIALOG_@@ 8
DIRECTORY 8
DONE 8
Daemon@@ 8
Data2 8
DataContext 8
DataModel 8
Dates 8
Defines 8
DefinitionId 8
Descrip@@ 8
Dialog_@@ 8
Dictionary 8
Different 8
Different@@ 8
Dim@@ 8
Distin@@ 8
Dumb@@ 8
Dynamic@@ 8
ENCE 8
ERR@@ 8
ERROR_@@ 8
Ear@@ 8
Edit 8
EditText 8
Enclosing@@ 8
Encode 8
Encoder 8
Enumeration 8
Episode 8
Exit@@ 8
Extensions 8
Extra 8
FILL_@@ 8
FailedException 8
Failure 8
Fake@@ 8
Features 8
Fetcher 8
Focus 8
Framework 8
Fun@@ 8
Futures 8
GC 8
GL_@@ 8
GROUP_@@ 8
Gene 8
Generation 8
GetValue@@ 8
Grace@@ 8
HOST 8
Highligh@@ 8
Hold@@ 8
II@@ 8
INCREMENT 8
INDArray 8
INDEX_@@ 8
INDI@@ 8
INTERNAL@@ 8
ISS@@ 8
IS_@@ 8
Icon@@ 8
Identi@@ 8
IgnoreCase 8
ImageIcon 8
Imp@@ 8
InputStreamReader 8
InstantiationException 8
Intercep@@ 8
InvocationTargetException 8
Ip 8
JMSException 8
Jackson@@ 8
KS 8
LANGUAGE 8
LEVEL_@@ 8
LF_@@ 8
Lambda 8
Lambda@@ 8
Lang 8
Length@@ 8
Like@@ 8
Listing@@ 8
LocalFileSystem 8
Lookup 8
Loop@@ 8
MAC 8
METHOD 8
METRIC_@@ 8
MIME@@ 8
MIN@@ 8
MOUN@@ 8
Mari@@ 8
Marshall@@ 8
Masks 8
Matcher@@ 8
Memory 8
MethodName 8
Migration@@ 8
Minus@@ 8
More 8
Mutable@@ 8
NAMES 8
NBTTagCompound 8
NUM 8
NV@@ 8
Negative@@ 8
Notes@@ 8
Numeric@@ 8
ONE@@ 8
ORE 8
ORIENTATION_@@ 8
OUT 8
OUT@@ 8
OUTPUT_@@ 8
OfType 8
OfYear 8
Off@@ 8
Oper@@ 8
PACKAGE 8
PARENT 8
PERMISSION_@@ 8
POINT@@ 8
POINTER_@@ 8
PRIMARY 8
PRIVATE 8
PRO@@ 8
PROPERTY_@@ 8
PUR@@ 8
Packages 8
Partial@@ 8
Patient@@ 8
Pin@@ 8
Poll@@ 8
Popup@@ 8
Presentable@@ 8
ProgressIndicator 8
PsiExpression 8
QUERY_@@ 8
Quality@@ 8
Queries 8
READ_@@ 8
REAL@@ 8
Reachable 8
ReadOnly 8
Readable@@ 8
Receive@@ 8
Rect@@ 8
Regex@@ 8
Registered 8
RequestParam 8
ResponseBody 8
Revisions 8
Ri@@ 8
RootPath 8
RouteBuilder 8
SB 8
SCREEN_@@ 8
SESSION 8
SET 8
SIGN@@ 8
SIZE_@@ 8
SNAPSHOT 8
SP_@@ 8
ST 8
Save 8
Screen 8
Seen 8
Segments 8
SelectionEvent 8
Series 8
Series@@ 8
ServletContext 8
Shader@@ 8
Shown 8
Sink@@ 8
Skipp@@ 8
Socket 8
Something 8
SourcePath 8
Spot@@ 8
Src@@ 8
Started 8
Starting 8
Sto@@ 8
StreamException 8
StringReader 8
Sync@@ 8
TIME 8
TO@@ 8
Tal@@ 8
Techn@@ 8
Tele@@ 8
Thrown 8
Ticket 8
TimeStamp 8
TimeZone@@ 8
Timed@@ 8
Tokenizer 8
Tr@@ 8
Trade@@ 8
Transparent@@ 8
TypeOf@@ 8
UIUtil 8
UN@@ 8
US@@ 8
UT_@@ 8
Uid 8
Units 8
Using 8
Uti@@ 8
V1@@ 8
VALID_@@ 8
VE 8
VX@@ 8
ValueException 8
Vcs 8
Vfs@@ 8
ViewPager 8
WRAP_CONTENT 8
Waiting 8
Want@@ 8
You@@ 8
Zero 8
ZooKeeper@@ 8
_C@@ 8
_SECURI@@ 8
_SERVER_ERROR 8
a_@@ 8
accumulator 8
activate 8
actor 8
agents 8
ai@@ 8
aliases 8
alpha@@ 8
and_@@ 8
annotations 8
applic@@ 8
appro@@ 8
archive 8
argument 8
article 8
assembly 8
assword 8
ati@@ 8
ating 8
ator@@ 8
attribu@@ 8
audio@@ 8
automat@@ 8
ballo@@ 8
bc@@ 8
bud@@ 8
buf@@ 8
bug@@ 8
ca@@ 8
calculate 8
camel 8
cfg 8
checked 8
cion 8
cleanup 8
cnt 8
collector 8
commands 8
comparator 8
compiler@@ 8
componentName 8
conserv@@ 8
const_@@ 8
constraint 8
containsAll 8
createTask@@ 8
created@@ 8
custom 8
decryp@@ 8
deleg@@ 8
deploy@@ 8
dest 8
dn 8
docs 8
does@@ 8
double@@ 8
dr@@ 8
driver@@ 8
dy 8
ele 8
elem 8
ell 8
ence 8
encoded@@ 8
escape@@ 8
excel 8
exp@@ 8
expi@@ 8
export@@ 8
failures 8
fault@@ 8
fee@@ 8
fence 8
field1" 8
field2" 8
filtered@@ 8
filters 8
fine 8
fixed@@ 8
fn 8
fram@@ 8
ful@@ 8
future@@ 8
generator 8
getAbsolute@@ 8
getApplicationContext 8
getAuto@@ 8
getColor 8
getContents 8
getCustom@@ 8
getDate 8
getDb@@ 8
getDocument 8
getDrawable 8
getEditor 8
getEndOffset 8
getFeature@@ 8
getFileSystem 8
getFormat 8
getFrom@@ 8
getGlobal@@ 8
getIntent 8
getLabel 8
getMethod@@ 8
getRepository@@ 8
getRowCount 8
getSegment@@ 8
getShort 8
getSource 8
getTransaction@@ 8
getVariable@@ 8
gr@@ 8
gra@@ 8
groupId 8
h_@@ 8
hasMoreElements 8
hash@@ 8
hello@@ 8
highlighter 8
hosts 8
hub 8
i2 8
ignored 8
implement 8
inclu@@ 8
indexName 8
index_@@ 8
indexed@@ 8
indexes 8
indi@@ 8
interval 8
isEmpty@@ 8
isRe@@ 8
isUse@@ 8
itude@@ 8
jvm@@ 8
ka 8
keyType 8
lastName 8
lay@@ 8
len@@ 8
locks 8
logic@@ 8
longValue 8
mFile 8
mand@@ 8
mapp@@ 8
matching 8
maxValue 8
md 8
missing@@ 8
monitor 8
newPath 8
nfe@@ 8
nome 8
nome@@ 8
opcode 8
or_@@ 8
owners 8
pFile 8
parser@@ 8
payment 8
peek@@ 8
permission@@ 8
pic@@ 8
predecessors 8
previous 8
prob@@ 8
processing@@ 8
publish 8
putValue 8
py@@ 8
qualifier 8
radius 8
raw@@ 8
rawtypes 8
rc 8
re_@@ 8
readObject 8
referen@@ 8
render 8
reply@@ 8
requestor 8
resolved 8
revision@@ 8
rollback 8
rpc@@ 8
sEnabled 8
sModel 8
sType 8
sa@@ 8
scripts 8
scrollTo@@ 8
secret 8
setAttribute@@ 8
setAuto@@ 8
setClient@@ 8
setContentType 8
setCursor 8
setHorizontal@@ 8
setOperation@@ 8
setProgress 8
setRequest@@ 8
setResult 8
setVertical@@ 8
setY 8
settings@@ 8
settingsBuilder 8
sheet 8
si@@ 8
siblings 8
side@@ 8
sions 8
skin 8
slice 8
snippet 8
speech 8
st_@@ 8
stands 8
state@@ 8
stateChanged 8
sto@@ 8
storage_@@ 8
stringValue 8
sub 8
subscribe@@ 8
supplier 8
than 8
then 8
though 8
tibly 8
toUpperCase 8
tokenStream 8
ton 8
trailer 8
trim@@ 8
tude@@ 8
twit@@ 8
uf 8
uid 8
ula 8
unassigned 8
union@@ 8
unused 8
unused@@ 8
ves 8
visible 8
visors 8
w1 8
w2 8
w_@@ 8
waitFor 8
walls 8
will@@ 8
working@@ 8
writeBytes 8
writeFile 8
xyz 8
zed 8
‚ 8
↓ 8
ま@@ 8
失@@ 8
的@@ 8
"100" 7
0000@@ 7
007@@ 7
05@@ 7
09@@ 7
0xff 7
1.1.@@ 7
10.0 7
101@@ 7
150 7
17@@ 7
180 7
19:@@ 7
2000 7
2014 7
217@@ 7
22@@ 7
26@@ 7
30000 7
35 7
37 7
38 7
3c@@ 7
4096 7
66@@ 7
94@@ 7
<<= 7
ACCESS_@@ 7
ACTIVITY_@@ 7
ADD_@@ 7
AIR 7
AME@@ 7
AP@@ 7
AR@@ 7
AddChild 7
Addr 7
Administr@@ 7
AfterClass 7
Alex@@ 7
Amazon@@ 7
An 7
AnActionEvent 7
Analysis@@ 7
AndWait 7
Applic@@ 7
Authenticated@@ 7
Average@@ 7
BASE_@@ 7
BO@@ 7
BOLD 7
Backup@@ 7
Bag 7
Bet@@ 7
Beta 7
Blueprint@@ 7
Bottom 7
Bound@@ 7
Boundary 7
BoundingBox 7
Buffered@@ 7
ByteArray@@ 7
CANCEL 7
CHAR_@@ 7
COUNT@@ 7
COURSE_@@ 7
CURRENT 7
CURRENT_@@ 7
Calendar@@ 7
Capture 7
Charset 7
CheckFor@@ 7
Checker 7
Chil@@ 7
Chrome@@ 7
ClientConfig 7
Collec@@ 7
Combin@@ 7
Combo@@ 7
Company 7
Concept@@ 7
Cond 7
Configurations 7
Configure 7
Containing@@ 7
Convert@@ 7
Couldn 7
DELETE 7
DFSConfigKeys 7
DI 7
DIS@@ 7
DP 7
DS 7
DURATION 7
DataPoint 7
DataSet@@ 7
Datanode@@ 7
Datatype@@ 7
DayOfWeek 7
DecimalFormat 7
Delegate 7
Delegation@@ 7
Delivery@@ 7
Dependency@@ 7
Descriptor@@ 7
Destination 7
Disabled 7
DocumentBuilder 7
DoesNot@@ 7
Draw 7
Dri@@ 7
Duplicates 7
ED@@ 7
ENCRYP@@ 7
EXTRA_@@ 7
Easy@@ 7
Encoding@@ 7
Enum@@ 7
EnumSet 7
Equals@@ 7
ErrorMessage 7
EventArgs 7
ExecutionContext 7
FA@@ 7
FE@@ 7
Fact@@ 7
Factors 7
Fault@@ 7
FieldType 7
FileChannel 7
FileHandle 7
Finished 7
Flu@@ 7
Foo@@ 7
Footer 7
Forward@@ 7
Fragment@@ 7
FullPath 7
GENE@@ 7
GLOB@@ 7
GRAPH_@@ 7
Gamma 7
Gen 7
General@@ 7
HA@@ 7
HBase@@ 7
HH 7
HOST_@@ 7
Hash 7
Historic@@ 7
IT@@ 7
Icons 7
ImageLoader 7
Img 7
Implement@@ 7
Imported@@ 7
In_@@ 7
Included 7
InputSplit 7
Insert@@ 7
Inserted 7
Installer 7
Inte@@ 7
Iter 7
JAVA_@@ 7
JEC@@ 7
JSONException 7
JSON_@@ 7
Jpa@@ 7
JsonObject 7
JsonString 7
JsonUnmarshaller 7
KeyStore 7
Keycloak@@ 7
LAYOUT_@@ 7
LC@@ 7
LENGTH_@@ 7
LE_@@ 7
LIMIT 7
Later 7
Limits 7
Lit@@ 7
Lng 7
Loc 7
Lon@@ 7
MARGIN 7
MC@@ 7
MODIFIED 7
MP_@@ 7
MalformedURLException 7
Manage@@ 7
Managed@@ 7
ManagementException 7
Mandatory@@ 7
Mapp@@ 7
Mas@@ 7
Mechanis@@ 7
Milli@@ 7
Minute@@ 7
Mo@@ 7
Mod@@ 7
Movie 7
Mqtt@@ 7
ND@@ 7
NOT_SUPPORTED 7
Nest@@ 7
Neu@@ 7
NoSuchAlgorithmException 7
Note 7
OAuth@@ 7
OB@@ 7
OFFSET 7
Once 7
Ordered@@ 7
Over 7
PASSWORD 7
PS 7
PS@@ 7
Packets 7
Paint 7
Paint@@ 7
Parcelable 7
ParseException 7
Persist@@ 7
Pid 7
Pl@@ 7
Play 7
Playing@@ 7
Prefixes 7
Prev@@ 7
Printer 7
Priority 7
Processing 7
Proper@@ 7
PsiClassType 7
PsiMethod 7
Question 7
Quota@@ 7
R1 7
R2 7
R3 7
R4 7
REFERENCE_@@ 7
REPE@@ 7
RESULT_OK 7
RUNTIME_@@ 7
RX@@ 7
Ran@@ 7
Raw@@ 7
RectF 7
Replicated@@ 7
RequestBody 7
Requested 7
Requires@@ 7
Respon@@ 7
Ret@@ 7
Retain@@ 7
RigidBody@@ 7
Rolling@@ 7
SCOPE 7
SH_@@ 7
SQLite 7
STRING_@@ 7
SVG@@ 7
SYMBOL_@@ 7
Schedul@@ 7
Scheme@@ 7
Sec@@ 7
SecurityException 7
Sent@@ 7
Severity 7
Share 7
Speech 7
Spi@@ 7
Spring@@ 7
StateMachine 7
Stopped 7
Storage 7
StringWriter 7
Structured@@ 7
Style@@ 7
SyntaxException 7
TW@@ 7
TableColumn 7
Take@@ 7
Terminal@@ 7
Tests 7
Third@@ 7
Threaded@@ 7
Ticket@@ 7
Tiny@@ 7
Trait 7
Translation 7
Tri@@ 7
Twitter@@ 7
TypeCode 7
UL@@ 7
Unix@@ 7
VFS 7
VM@@ 7
Vector2 7
Ver@@ 7
Viewer@@ 7
Visit 7
Vo@@ 7
WARNING 7
WI@@ 7
Way@@ 7
Weights 7
Wrapper@@ 7
XmlElement 7
YES 7
Zip 7
ZipEntry 7
\t\t 7
_1 7
_SEQU@@ 7
_SETT@@ 7
_SH@@ 7
_logger 7
abbre@@ 7
abo@@ 7
accepts 7
actions 7
administrator 7
ak@@ 7
ana 7
analysis 7
answers 7
ant 7
application@@ 7
arena 7
ario@@ 7
ass@@ 7
assertion 7
atis@@ 7
average 7
aw@@ 7
ax@@ 7
az@@ 7
bars 7
bc 7
begin@@ 7
binding@@ 7
bl@@ 7
bm 7
bonus 7
boo@@ 7
bot@@ 7
bound@@ 7
box 7
branch@@ 7
bs@@ 7
bt 7
btn 7
bufSize 7
buffer@@ 7
built@@ 7
cancelButton 7
cash 7
cat@@ 7
categ@@ 7
caught 7
cd 7
chain 7
cing@@ 7
clean@@ 7
client_id 7
collation 7
collection@@ 7
comments 7
compo@@ 7
compute 7
continue@@ 7
copyTo@@ 7
correct 7
correctly 7
corrup@@ 7
credentials 7
crypto 7
dataSource@@ 7
days 7
dden@@ 7
declare@@ 7
degrees 7
distinct 7
doIn@@ 7
domain 7
dto 7
due 7
dump@@ 7
elementCount 7
ells 7
emails 7
en_@@ 7
enode 7
episode 7
err@@ 7
escape 7
eting@@ 7
executable@@ 7
expr 7
fech@@ 7
fice@@ 7
fillRect 7
findAll 7
flat@@ 7
flowFile 7
fname 7
four@@ 7
fromJson 7
ger_@@ 7
getApi@@ 7
getCanonicalName 7
getChild 7
getCon@@ 7
getConfig@@ 7
getCreate@@ 7
getEntry@@ 7
getExtension@@ 7
getFirst 7
getFont 7
getG@@ 7
getInfo 7
getInputStream 7
getItemId 7
getJ@@ 7
getLog 7
getNative@@ 7
getOffset 7
getPage 7
getPointer@@ 7
getPos 7
getProxy@@ 7
getRead@@ 7
getRegion 7
getRequest 7
getRule@@ 7
getSchema 7
getStatus@@ 7
getUnique@@ 7
getUpdate@@ 7
getUuid 7
getView 7
getWriter 7
getY@@ 7
getenv 7
github 7
graphs 7
groovy 7
guild 7
handleEvent 7
headerName 7
holi@@ 7
holidays 7
hook@@ 7
iValue 7
ide 7
idle@@ 7
im@@ 7
iment@@ 7
implemented 7
ind@@ 7
infos 7
inner 7
inputStream 7
instanti@@ 7
intellig@@ 7
interrupted 7
isChecked 7
isFalse 7
isTraceEnabled 7
isol@@ 7
itr 7
jd 7
ket 7
keyCode 7
ko@@ 7
lastIndexOf 7
later 7
latest 7
latest@@ 7
lati@@ 7
leaf 7
ler@@ 7
less 7
lets 7
liers 7
like@@ 7
locked 7
locked@@ 7
lon@@ 7
lookup 7
lu@@ 7
mListener 7
mar@@ 7
match_@@ 7
matic 7
mem@@ 7
men@@ 7
mount@@ 7
ms@@ 7
mt@@ 7
multiple 7
mysql 7
namenode 7
namespace@@ 7
nested@@ 7
net@@ 7
netmask 7
new_@@ 7
nextElement 7
none 7
notes 7
notifyDataSetChanged 7
offsets 7
onFailure 7
onPage@@ 7
ones 7
ony@@ 7
operand 7
operations 7
p3@@ 7
parsed@@ 7
pas@@ 7
period 7
pick@@ 7
pm@@ 7
policies 7
predictions 7
prefs 7
problem 7
psiFile 7
putBoolean 7
pwd 7
qui@@ 7
rack@@ 7
rar 7
rc@@ 7
reachable 7
readShort 7
rec@@ 7
received 7
remin@@ 7
reply 7
requested 7
responseCode 7
ret@@ 7
rev 7
rn@@ 7
roles 7
room 7
rotation 7
ru@@ 7
sResponse 7
sage@@ 7
sec@@ 7
secre@@ 7
seek@@ 7
separator@@ 7
seq 7
setAlignment 7
setBlock@@ 7
setDescription 7
setFilter 7
setFont 7
setForeground 7
setLabel 7
setMaximum@@ 7
setPath 7
setPriority 7
setUp@@ 7
setValue@@ 7
setVersion 7
setX 7
sim@@ 7
site 7
ssl 7
sted 7
strict 7
student@@ 7
substitute 7
succ 7
success@@ 7
sug@@ 7
tar@@ 7
teams 7
telemetry 7
temper@@ 7
tensor@@ 7
test2" 7
testCreate@@ 7
tester 7
testing@@ 7
third@@ 7
tim@@ 7
tion_@@ 7
too 7
topology 7
tors 7
tow@@ 7
tr 7
track@@ 7
trying 7
tude 7
ural@@ 7
urls 7
use_@@ 7
used 7
v1@@ 7
validator 7
value2" 7
variant 7
vers 7
visited@@ 7
waiting@@ 7
warning 7
wi@@ 7
will 7
workbench 7
worker@@ 7
writeDouble 7
written 7
xxx 7
ya@@ 7
yes 7
zookeeper 7
み@@ 7
器 7
"9@@ 6
0.1 6
0.5 6
0x80 6
120 6
132@@ 6
1f 6
2. 6
202@@ 6
250 6
256@@ 6
3.0 6
34" 6
34@@ 6
3L 6
3_@@ 6
40@@ 6
5000 6
5L 6
68@@ 6
74@@ 6
75 6
75@@ 6
812@@ 6
84@@ 6
85 6
9" 6
ADMIN 6
ALER@@ 6
AN 6
AND@@ 6
AN_@@ 6
APPLIC@@ 6
ARTI@@ 6
ASH@@ 6
ASTNode 6
Abstract 6
Ac@@ 6
Accep@@ 6
Accept 6
Access 6
AccessToken 6
Acknowledge@@ 6
Added 6
Additional@@ 6
Addres@@ 6
Alive@@ 6
AmazonWebService@@ 6
America 6
AndGet 6
Ant@@ 6
Applications 6
Apply@@ 6
Appro@@ 6
Arc 6
Article 6
Asser@@ 6
Association 6
AsyncCallback 6
AtomicInteger 6
Attempt 6
Attempts 6
AudioManager 6
Authorization 6
Avoid@@ 6
Aware 6
BC@@ 6
BLO@@ 6
BLOCK@@ 6
BM@@ 6
BOARD_@@ 6
BORDER 6
BOUN@@ 6
BS 6
BSP@@ 6
BYTE_@@ 6
Balance 6
BeanFactory 6
Binary 6
BitmapFactory 6
Bits 6
Body@@ 6
Bot@@ 6
Branches 6
Broker@@ 6
Bucket@@ 6
BuildRule@@ 6
BytesReference 6
CAS@@ 6
CATA@@ 6
CE@@ 6
CE_@@ 6
CM@@ 6
COLOR_@@ 6
COL_@@ 6
COMB@@ 6
CON@@ 6
COUNT 6
COUNT_@@ 6
CUR@@ 6
Calling@@ 6
Canceled 6
Capability 6
Carbon@@ 6
Cart@@ 6
Caught 6
CheckBox 6
City@@ 6
Classes@@ 6
Clauses 6
Clob 6
Combiner 6
CommandType 6
Completion@@ 6
Concurrent@@ 6
Condu@@ 6
ConfigurationService 6
Constant@@ 6
Contacts 6
Contain@@ 6
Cool@@ 6
Coords 6
Country 6
Country@@ 6
Craw@@ 6
Credentials@@ 6
Cubic 6
Curr@@ 6
Cz@@ 6
DARY_@@ 6
DATE_@@ 6
DFS 6
DIR_@@ 6
DISTINCT 6
DOC@@ 6
Daemon 6
Daily@@ 6
DataException 6
DataObject 6
Datum 6
Dav@@ 6
Db 6
Decision 6
Declared@@ 6
Deco@@ 6
Defined 6
Del 6
Deploy@@ 6
DirName 6
Disposable 6
Docker@@ 6
Dont@@ 6
Dou@@ 6
Drop@@ 6
Dup@@ 6
Dynamic 6
ED_@@ 6
EObject 6
EP_@@ 6
ERROR_INVALID_@@ 6
EV@@ 6
Editable 6
Elasticsearch@@ 6
ElasticsearchException 6
Emitter 6
Enforce@@ 6
Epoch@@ 6
EqualTo 6
EventId 6
Exclusive@@ 6
Execute 6
Expand@@ 6
FACTORY 6
FEATURE_@@ 6
FIELD_@@ 6
FREQ 6
FW@@ 6
Fallback 6
FieldException 6
FileList 6
FileReference 6
FileTo@@ 6
FilterFactory 6
Final@@ 6
Finder@@ 6
Finish 6
Flag@@ 6
Footer@@ 6
Force@@ 6
Fr@@ 6
FrameRate 6
Free@@ 6
Frequ@@ 6
Fro@@ 6
Frontend@@ 6
Fuzz@@ 6
GAME_@@ 6
GLSL@@ 6
GPU_@@ 6
GR@@ 6
GRAN@@ 6
GUI@@ 6
GUI_@@ 6
GestureDetector 6
Groups@@ 6
Gui@@ 6
H 6
HT@@ 6
Hdfs@@ 6
Help@@ 6
ICE_@@ 6
IDENTIFIER 6
IN 6
INTERVAL 6
INT_@@ 6
IS 6
IS@@ 6
Indexing@@ 6
InetSocketAddress 6
Information@@ 6
Initialization@@ 6
Initialized@@ 6
InputStream@@ 6
Integer@@ 6
Intern@@ 6
JA@@ 6
JD@@ 6
JMS@@ 6
Jni@@ 6
JsonProperty 6
KEYS 6
LATION 6
LES 6
LF 6
LP@@ 6
Lap@@ 6
Left@@ 6
Levels 6
Locator 6
LogFactory 6
Logs 6
Looper 6
MAP_@@ 6
MBean 6
MD5 6
ME 6
MEN@@ 6
MENT_@@ 6
MESSAGE_TYPE 6
MODULE 6
MQ@@ 6
Mapper@@ 6
MavenProject 6
Men@@ 6
Mi@@ 6
Mirror@@ 6
Mon@@ 6
Move@@ 6
Moved 6
Ms 6
Must@@ 6
Mutation@@ 6
My 6
Nano@@ 6
Nanos 6
Nd@@ 6
Need@@ 6
Neur@@ 6
NoSuchMethodException 6
NodeType 6
Norm@@ 6
Now 6
Num@@ 6
NumberOf@@ 6
OBJECT_@@ 6
OL@@ 6
ONE_@@ 6
OO@@ 6
OUTPUT 6
ObjectUtils 6
Observer@@ 6
OnItem@@ 6
OrUpdate@@ 6
Orig@@ 6
Origin 6
Os@@ 6
Overri@@ 6
PAS@@ 6
PHO@@ 6
PL@@ 6
PRI@@ 6
Parenthe@@ 6
Parsing 6
Paused 6
Pic 6
Pic@@ 6
Plus@@ 6
Possible@@ 6
Pref@@ 6
Prepare@@ 6
Processors 6
Profile@@ 6
Proj 6
PropertyValue 6
QU@@ 6
Question@@ 6
RAM@@ 6
RC@@ 6
REFERENCES 6
REPOSI@@ 6
REQUIRED_@@ 6
RESOL@@ 6
REST_@@ 6
RG@@ 6
RIGHT_@@ 6
RO_@@ 6
RPC_@@ 6
RR@@ 6
ReadOnly@@ 6
Rece@@ 6
Recycler@@ 6
Release@@ 6
Replacement 6
Replica 6
Reset@@ 6
Resiz@@ 6
Revision@@ 6
Roles 6
Room@@ 6
Route@@ 6
Router@@ 6
SECON@@ 6
SERVER 6
SET_ID 6
SH@@ 6
Saniti@@ 6
Sasl@@ 6
Schemas 6
Scienti@@ 6
Sdk 6
Second 6
Selector@@ 6
Selectors 6
Self@@ 6
ServletResponse 6
SetSize 6
Showing 6
Sign 6
Since 6
Singleton@@ 6
Sites 6
Solution@@ 6
SparseMatrix 6
Spawn 6
Specification@@ 6
Stap@@ 6
StartOffset 6
StateChange 6
StepMeta 6
StreamWriter 6
StringArray 6
Structure 6
Student 6
Studio 6
Sub 6
Successful 6
Svn@@ 6
System_@@ 6
TABLE_NAME 6
TE 6
TED_@@ 6
THREAD_@@ 6
THRESHOLD 6
TIC_@@ 6
TProtocol 6
TRI@@ 6
TRY 6
TUR@@ 6
TX@@ 6
Tcp@@ 6
Testing 6
ThreadFactory 6
ThreadPoolExecutor 6
Time_@@ 6
Timestamp@@ 6
Top 6
Trans 6
Tru@@ 6
True@@ 6
TypeToken 6
Typed@@ 6
UDF@@ 6
UM 6
UTC 6
Union 6
Unique@@ 6
Updat@@ 6
Updater 6
Upgrade@@ 6
Urls 6
Use 6
UseCount 6
UserInfo 6
VER 6
VIDEO_@@ 6
V_@@ 6
ValueMeta 6
ValueMeta@@ 6
Variables@@ 6
Velocity 6
Vertical 6
Volume 6
WEB@@ 6
WOR@@ 6
Waiting@@ 6
Week@@ 6
Welcome 6
West 6
White@@ 6
Width@@ 6
Windows 6
Writes 6
Wrong 6
Zk@@ 6
_B@@ 6
_SEPARATOR 6
_SIZE 6
_count 6
_list@@ 6
_map@@ 6
_play@@ 6
a1 6
a2 6
accept@@ 6
acion 6
addContent 6
addHeader 6
addRow 6
ados 6
ages 6
aggregator 6
ah@@ 6
ai 6
ail 6
ake 6
alizer 6
all_@@ 6
allocate 6
allow 6
alter@@ 6
ander@@ 6
anim 6
apk@@ 6
arch 6
associ@@ 6
automati@@ 6
available@@ 6
await 6
back_@@ 6
baseline 6
bb_@@ 6
bbb 6
beam@@ 6
bear@@ 6
bearing 6
bench 6
best 6
binds 6
ble_@@ 6
blob 6
blocked@@ 6
blocking@@ 6
bra@@ 6
buf2 6
button_@@ 6
bw 6
bytes@@ 6
bytesRead 6
cacheManager 6
canceled 6
capability 6
carbon 6
cardinality 6
catalog@@ 6
cer 6
change 6
changed@@ 6
checksum 6
childCount 6
chunkSize 6
classType 6
cloud@@ 6
clusters 6
combinations 6
connec@@ 6
consume@@ 6
containingClass 6
contexts 6
conversion 6
convert_@@ 6
converters 6
copyFrom 6
copyFrom@@ 6
correc@@ 6
cost_@@ 6
couch@@ 6
cr 6
createTable 6
credential@@ 6
css@@ 6
currentIndex 6
cursor@@ 6
cv 6
cx 6
cz 6
dbe@@ 6
de_@@ 6
deci@@ 6
dedicated 6
def 6
delivery@@ 6
dependency@@ 6
detached 6
digit 6
dir1 6
dir2 6
dirty@@ 6
dist 6
distance@@ 6
dk 6
down 6
drawImage 6
drawLine 6
dt2 6
dx 6
edException 6
edition 6
elem@@ 6
emf 6
ename 6
encies 6
endOf@@ 6
enda 6
enda@@ 6
ended@@ 6
enqueue 6
eps 6
estimated@@ 6
ets 6
eu@@ 6
eval@@ 6
exc 6
exc@@ 6
executor@@ 6
exist@@ 6
explain@@ 6
extracted 6
f3@@ 6
fault 6
feature 6
fh@@ 6
field1 6
field2 6
fieldType 6
fier@@ 6
fileList 6
flo@@ 6
font@@ 6
fonts 6
formatter 6
ft@@ 6
fullPath 6
func 6
gamma@@ 6
gener@@ 6
geometry@@ 6
getAll 6
getApplication@@ 6
getAs@@ 6
getBucket@@ 6
getCause 6
getCode 6
getColumnCount 6
getConstructor 6
getDescriptor 6
getFilename 6
getFloat@@ 6
getFont@@ 6
getFull@@ 6
getGeneric@@ 6
getInternal@@ 6
getMemory@@ 6
getNo@@ 6
getOriginal@@ 6
getOutputStream 6
getPreferredSize 6
getProtocol 6
getQuery 6
getRaw@@ 6
getRecord@@ 6
getRegion@@ 6
getRuntime 6
getSession@@ 6
getShort@@ 6
getSingleton 6
getStackTrace 6
getThread@@ 6
getTypeName 6
getV@@ 6
getVariable 6
gf 6
graphic@@ 6
gremlin 6
groupName 6
harness 6
hazelcast@@ 6
hi 6
hl7@@ 6
horizontal@@ 6
httpResponse 6
i4 6
ich@@ 6
ids@@ 6
immutable@@ 6
indexed 6
ine@@ 6
ingMode 6
ini@@ 6
initComponents 6
initial_@@ 6
ipt 6
isDebugEnabled 6
isInitialized 6
isNotBlank 6
isNotEmpty 6
isReadOnly 6
isRunning 6
is_@@ 6
items@@ 6
ition@@ 6
j_@@ 6
java@@ 6
joining 6
jump@@ 6
just@@ 6
k4 6
keystore 6
keyword 6
l3 6
lace@@ 6
layouts 6
learn@@ 6
length@@ 6
level@@ 6
lic 6
logMessage 6
loop 6
lr_@@ 6
ls 6
mType 6
m_h@@ 6
man 6
manifest 6
manifest@@ 6
mapTo@@ 6
maxResults 6
mergeFrom 6
met@@ 6
metrics@@ 6
michael 6
mimeType 6
mit@@ 6
mnemonic 6
model@@ 6
modified 6
mongo 6
mx 6
ness 6
networks 6
neur@@ 6
never 6
newPos 6
newly 6
nextLong 6
notifyAll 6
ny@@ 6
oauth 6
orientation 6
our@@ 6
outState 6
over_@@ 6
ow@@ 6
page_@@ 6
paralle@@ 6
pass@@ 6
patch@@ 6
paused 6
pe 6
pet@@ 6
phone 6
pi 6
pick 6
ping@@ 6
placeholder@@ 6
plate@@ 6
players 6
plus_@@ 6
pn 6
positions 6
postgresql 6
proc 6
program@@ 6
prot 6
provided 6
publisher 6
qos 6
qualified 6
queueName 6
queued@@ 6
raft 6
railer 6
ratio@@ 6
readFrom 6
readableBytes 6
recording 6
recursive 6
recycle 6
red 6
register 6
registrations 6
related 6
rem@@ 6
remaining 6
remarks 6
remote 6
removing 6
repaint 6
repeat_@@ 6
repl 6
replica 6
reports 6
repository@@ 6
requires 6
resourceId 6
restore@@ 6
retain@@ 6
ron 6
rootDir 6
rotate 6
rowId 6
sAre@@ 6
sMap@@ 6
sab@@ 6
scheduler 6
scroll 6
sec 6
sending 6
sensor@@ 6
serves 6
serviceId 6
setAllow@@ 6
setCache@@ 6
setH@@ 6
setHeader@@ 6
setKey 6
setLast@@ 6
setOutput@@ 6
setPort 6
setPreferred@@ 6
setTotal@@ 6
sha@@ 6
shapes 6
shouldNot@@ 6
side 6
signal@@ 6
signing 6
sion 6
sized@@ 6
slash 6
sorted@@ 6
sos 6
spring@@ 6
spy 6
ss@@ 6
startElement 6
startIndex 6
stat 6
status@@ 6
stepMeta 6
strings 6
subject 6
submit 6
succeeded 6
successful 6
syn@@ 6
synthe@@ 6
tain 6
tar 6
team@@ 6
tempDir 6
templ@@ 6
temporal 6
tenants 6
termin@@ 6
testRemove@@ 6
tex 6
tf 6
tick 6
tid@@ 6
time2 6
times 6
tional@@ 6
toByteArray 6
toFile 6
toMillis 6
tool 6
traversal 6
triangle 6
tro 6
tz 6
ual 6
ub@@ 6
uniform 6
unique 6
unless 6
unmodifiableList 6
updated 6
ure@@ 6
valu@@ 6
vari@@ 6
vault 6
verbose 6
vi@@ 6
vice 6
vice@@ 6
volume@@ 6
votes 6
wb 6
workspace 6
writeLong 6
writeShort 6
x5 6
zh 6
â 6
€ 6
比@@ 6
"1 5
"3.@@ 5
'1' 5
-@@ 5
.8@@ 5
0.05@@ 5
0.0f 5
0x0@@ 5
0x3F 5
0x5@@ 5
0x7F 5
0xFFFF 5
1.1 5
100000 5
10L 5
110 5
130 5
142 5
16.@@ 5
2011 5
3.1 5
3.14@@ 5
300@@ 5
33@@ 5
36 5
360 5
423@@ 5
43 5
46 5
56@@ 5
64_@@ 5
67@@ 5
70@@ 5
78@@ 5
80@@ 5
85@@ 5
96 5
97@@ 5
9999 5
AA@@ 5
AC 5
ACCOUNT_@@ 5
ACTIVE 5
ACTIVE_@@ 5
ADDED 5
AI 5
ALWAYS_@@ 5
ANALY@@ 5
ANCE_@@ 5
ANY 5
APP@@ 5
ARRAY 5
ASCII 5
ASE 5
ATE 5
ATE_@@ 5
ATTRIBUTES 5
ATTR_@@ 5
ATT_@@ 5
AUTO_@@ 5
Abort@@ 5
Acceler@@ 5
Accessible 5
AccessorTable 5
Accor@@ 5
Activation@@ 5
Activator 5
Added@@ 5
Addresses 5
Aggregate@@ 5
Ajax@@ 5
Alert 5
Alternative@@ 5
Always@@ 5
Analysis 5
Ange@@ 5
Anim 5
Arc@@ 5
Arch 5
Armor@@ 5
Ask@@ 5
Assigned@@ 5
Attempt@@ 5
Authenticated 5
Authenticator@@ 5
Authority@@ 5
Aux@@ 5
Axis 5
BODY 5
BOOK@@ 5
BOTH 5
BRA@@ 5
Balancer@@ 5
Ballo@@ 5
Bit@@ 5
Blank 5
Bo@@ 5
Bounds@@ 5
Bug 5
Builtin@@ 5
ByKey 5
Bytes@@ 5
CACHE 5
CAR@@ 5
CARD_@@ 5
CD 5
CLO@@ 5
CODE_@@ 5
CONNECTED 5
CONTAINER_@@ 5
CONTENT 5
CONTEXT_@@ 5
COS@@ 5
CR 5
CRE@@ 5
CSV 5
CSV@@ 5
CU@@ 5
CUBE_@@ 5
CURSOR 5
CacheEntry 5
Calls 5
Candidate@@ 5
ChangeEvent 5
ChatMessage 5
Checkbox@@ 5
Cl@@ 5
ClassNames 5
ClassPath@@ 5
Classification@@ 5
Cm@@ 5
Coll 5
ColumnIndex 5
Configured@@ 5
Construct@@ 5
Consumed 5
Contains 5
ContentProvider 5
Contents@@ 5
Converter@@ 5
Copies 5
Correction@@ 5
Creative@@ 5
Ctrl 5
Cut 5
DBObject 5
DELETED 5
DELETE_@@ 5
DEPTH_@@ 5
DEVICE_@@ 5
DIRECT@@ 5
DM@@ 5
DO 5
DataSource@@ 5
Datano@@ 5
DateFormat@@ 5
DateTime@@ 5
Days 5
Decl 5
Decoding@@ 5
Deep@@ 5
Del@@ 5
Demo@@ 5
Den@@ 5
Destroy@@ 5
Destroyed 5
Detach@@ 5
DeviceId 5
Displayed 5
Dns@@ 5
DocumentBuilderFactory 5
DocumentManager 5
Domains 5
Done@@ 5
Dragging 5
ENV_@@ 5
EN_@@ 5
EOF 5
EOFException 5
Emitter@@ 5
EndOf@@ 5
Energy 5
Engin@@ 5
Entered 5
Escape@@ 5
EventBus 5
Exclu@@ 5
Execute@@ 5
Expect@@ 5
Expecting 5
Expressions 5
Extractor 5
FLU@@ 5
FOO@@ 5
FR@@ 5
FUNCTION@@ 5
Fac@@ 5
Factories 5
Fade@@ 5
Fe@@ 5
FileReader 5
Final 5
Fire 5
Foo 5
ForTest 5
Formatter 5
Formatting@@ 5
FromText 5
Full 5
Functional@@ 5
GET_@@ 5
GUI 5
Game 5
Gene@@ 5
General 5
GeoPoint 5
Gson@@ 5
HO@@ 5
HTTP_@@ 5
Hoo@@ 5
Hour 5
IC 5
IE_@@ 5
INDIC@@ 5
INVALID_@@ 5
IO 5
ITEMS 5
Ide@@ 5
Ident 5
Immediately 5
Import 5
Initializ@@ 5
Initialized 5
Injector 5
Inser@@ 5
Integr@@ 5
Interaction@@ 5
Interceptor@@ 5
Into 5
InvalidKeyException 5
Invoice 5
IsValid@@ 5
JB@@ 5
Javac@@ 5
Jsp@@ 5
KeyDown 5
KeySpec 5
KieSession 5
LANGUAGE_@@ 5
LC 5
LD_@@ 5
LE@@ 5
LIST_@@ 5
LOCAL 5
LOCATION_@@ 5
LOG@@ 5
LS@@ 5
LY 5
L_@@ 5
Labels 5
Latest@@ 5
Like 5
LinkedHashSet 5
Links@@ 5
ListAdapter 5
Loaded@@ 5
Loading@@ 5
MAIN@@ 5
MAPPING 5
MATRIX 5
MEDIA_@@ 5
MESSAGE 5
MILLISECONDS 5
MIN_@@ 5
MO@@ 5
MS@@ 5
Mail@@ 5
Make@@ 5
Manual@@ 5
Mapped@@ 5
Mappings 5
Matchers 5
Matching@@ 5
Matri@@ 5
Measure@@ 5
MemoryError 5
Merged@@ 5
Modification 5
Modifier@@ 5
Mount 5
Mu@@ 5
Multimap@@ 5
Mutation 5
NAMESPACE_@@ 5
NE@@ 5
NEXT_@@ 5
NE_@@ 5
NORMAL 5
Nested@@ 5
Netty@@ 5
Network 5
NoSuchElementException 5
Normalized@@ 5
Notation 5
OP_@@ 5
ORDER_@@ 5
ORIG@@ 5
OS 5
O_@@ 5
Obtain@@ 5
OptionsMenu 5
Org@@ 5
Original@@ 5
OutOf@@ 5
Outer@@ 5
Outgoing@@ 5
PAUSE 5
POSITION 5
POT 5
PP 5
PROP_@@ 5
PROVIDER_@@ 5
Painter 5
Parse 5
Pending 5
Persistence@@ 5
Persistent@@ 5
Person@@ 5
Pressed@@ 5
Problem@@ 5
Proc@@ 5
Processed 5
Production@@ 5
Prompt@@ 5
PropertyManager 5
Protobuf@@ 5
PsiModifier 5
Public 5
Push 5
QL@@ 5
QQ@@ 5
Que@@ 5
QueueSize 5
Quick@@ 5
READ 5
REG@@ 5
REMOVE 5
RESOURCE_@@ 5
RF 5
Reached@@ 5
Reading 5
Recent@@ 5
Redirects 5
ReentrantLock 5
Registered@@ 5
Repeat 5
Reporter 5
Reset 5
ResourcePath 5
Rol@@ 5
Rounded@@ 5
Router 5
Rsp 5
S3@@ 5
SDK 5
SE 5
SERVER_@@ 5
SE_@@ 5
STORE 5
Scalar 5
Scheduler 5
Screen@@ 5
Scrolling@@ 5
SearchContext 5
Section 5
SelectionAdapter 5
Send 5
Sequ@@ 5
Sequential@@ 5
Serializ@@ 5
ServiceClient 5
ServiceManager 5
ServiceName 5
ServiceProvider 5
Shape@@ 5
Shot@@ 5
Signature@@ 5
Skew@@ 5
Sl@@ 5
Slash 5
Slots 5
Some@@ 5
Sorted 5
Sorted@@ 5
South 5
Species 5
StandardCharsets 5
Stats@@ 5
Stuff 5
Styles 5
Subclass 5
Submit@@ 5
Subnet@@ 5
Succe@@ 5
SwingUtilities 5
Swipe@@ 5
Symbol@@ 5
SymbolTable 5
TARGET_@@ 5
TEMPLATE 5
TEN@@ 5
TER@@ 5
TEXTURE 5
TE_@@ 5
THE@@ 5
THROWS 5
TIONAL_@@ 5
TOR@@ 5
TRACE 5
Tail 5
TargetApi 5
TestSuite 5
Than@@ 5
ThreadLocal 5
TimeStamp@@ 5
Tinker@@ 5
Tools 5
Trade 5
Trailing@@ 5
Traits 5
Transfer@@ 5
Transformer 5
Travel@@ 5
TreeSet 5
Trigger 5
Tuple2 5
TypeFrom@@ 5
TypeImpl 5
UPDATE_@@ 5
US_@@ 5
Unchecked@@ 5
Unexpected@@ 5
Unified@@ 5
UnitTest@@ 5
UnknownFields 5
Unmarshaller 5
UnmarshallerContext 5
Unsupported 5
Until@@ 5
Up 5
UpdateTime 5
Usage 5
Used@@ 5
Users@@ 5
Utf8@@ 5
Utility 5
Uuid 5
VERSION_CODES 5
VM 5
VO 5
Validators 5
ValueFrom@@ 5
Verb 5
Verbose 5
Veri@@ 5
Video 5
Visibility 5
VisibleForTesting 5
Vpn@@ 5
WHITE_@@ 5
WR@@ 5
Walk@@ 5
We@@ 5
WebApp@@ 5
Whi@@ 5
Workspace 5
Writing 5
Written@@ 5
ZIP@@ 5
\0' 5
_2 5
_3 5
_SERVER 5
_SP@@ 5
_font@@ 5
abili@@ 5
abling 5
abort@@ 5
about 5
absoluteFilePath 5
accep@@ 5
addMessage 5
addSelectionListener 5
address@@ 5
addresses 5
after_@@ 5
again 5
ago 5
ak 5
aler@@ 5
ans@@ 5
apk 5
appName 5
appended 5
arrow 5
asci@@ 5
assign@@ 5
atch@@ 5
ates 5
ative@@ 5
attend@@ 5
authentic@@ 5
auto 5
automatic 5
avail@@ 5
beans 5
big@@ 5
bing 5
bol@@ 5
bon@@ 5
book 5
bounded@@ 5
branch 5
bridge@@ 5
broker@@ 5
buf_@@ 5
byteArray@@ 5
cal 5
capture@@ 5
card 5
catalog 5
chant 5
checkState 5
ched_@@ 5
cid@@ 5
classify 5
clic@@ 5
codeBlock 5
columnIndex 5
com_@@ 5
combined@@ 5
commerce 5
common_@@ 5
composed 5
connected 5
constra@@ 5
consum@@ 5
consume 5
contract@@ 5
control 5
copied 5
credenti@@ 5
cri@@ 5
cs@@ 5
cube 5
currency@@ 5
customer 5
dataProvider 5
del 5
del@@ 5
denied 5
dep@@ 5
ders 5
desc@@ 5
destroy@@ 5
dia 5
did@@ 5
different 5
disk@@ 5
disp 5
dist@@ 5
divide 5
documentation 5
dont@@ 5
download_@@ 5
downloading 5
drive@@ 5
dst 5
dummy@@ 5
ef 5
ef@@ 5
eh 5
ell@@ 5
empty@@ 5
ena 5
ender@@ 5
ensation 5
enumeration 5
equivalent 5
erase 5
estim@@ 5
ew@@ 5
exceptions 5
explicit 5
f2@@ 5
facing 5
failed@@ 5
family 5
fications 5
firewall 5
firstName 5
fl@@ 5
flip 5
flt 5
fo@@ 5
food 5
forest 5
frag@@ 5
frequency 5
ftp 5
full 5
fy@@ 5
ge 5
ge@@ 5
gesture 5
getAccount@@ 5
getAddress@@ 5
getApplicationId 5
getAvailable@@ 5
getBody@@ 5
getBounds 5
getCat@@ 5
getChildCount 5
getCo@@ 5
getCommand@@ 5
getConfig 5
getDimension 5
getEntries 5
getError 5
getExpression 5
getImage 5
getKind 5
getMain@@ 5
getNamespace 5
getNodeName 5
getOptions 5
getParam@@ 5
getPriority 5
getRequired@@ 5
getSearch@@ 5
getStep@@ 5
getTemplate@@ 5
gg@@ 5
gh@@ 5
global@@ 5
gpio 5
graphics 5
grey@@ 5
grid_@@ 5
h2o 5
hasSize 5
help@@ 5
helper 5
holder 5
ia@@ 5
ib@@ 5
idStr 5
images 5
increment 5
indexOf@@ 5
ings 5
inher@@ 5
inspec@@ 5
instantiated 5
interactive 5
intercept 5
interceptor 5
internal_static_@@ 5
interrupt 5
iro 5
isConnected 5
ise 5
istics 5
iter2 5
iterate@@ 5
itor 5
itude 5
ity_@@ 5
ix 5
ize 5
ized 5
jk@@ 5
jms@@ 5
jndi 5
k1 5
k3 5
ken@@ 5
ku@@ 5
lazy@@ 5
leaves 5
lect 5
les@@ 5
levels 5
lineCount 5
listFiles 5
list_@@ 5
listen@@ 5
loader@@ 5
logout 5
lookup@@ 5
mAdapter 5
mH@@ 5
manual 5
mat@@ 5
mbean@@ 5
measure 5
mechanism 5
medi@@ 5
members 5
mer 5
mid@@ 5
minimum 5
minus 5
miss@@ 5
missed 5
mkdir 5
mobile@@ 5
moder@@ 5
month@@ 5
mtu 5
mu@@ 5
myFile 5
myFixture 5
myIs@@ 5
navig@@ 5
negate 5
nemonic 5
netty@@ 5
newState 5
nextDouble 5
normal 5
normalized@@ 5
not_@@ 5
notifier 5
notify_@@ 5
oauth@@ 5
obj1 5
objectId 5
old_@@ 5
ories@@ 5
orizontal@@ 5
ort@@ 5
output_@@ 5
pages 5
paint 5
pan@@ 5
par 5
percent 5
perm@@ 5
photo@@ 5
physical@@ 5
placeholder 5
plus 5
point@@ 5
policy@@ 5
poll 5
poster 5
pow 5
pp@@ 5
pr 5
prepare 5
prepended 5
preset@@ 5
prev 5
preview 5
privateKey 5
protect 5
proto@@ 5
putIfAbsent 5
putShort 5
pw 5
qs 5
quanti@@ 5
readByte 5
reader@@ 5
rebuild@@ 5
receive 5
recent@@ 5
recover@@ 5
recycler@@ 5
redirect 5
redis 5
reed 5
references 5
regex@@ 5
registration 5
rendered_@@ 5
rent 5
replicas 5
repos 5
req@@ 5
requestFocus 5
requireNonNull 5
rer@@ 5
resultNode 5
resume@@ 5
retri@@ 5
ritical@@ 5
ron@@ 5
rootPath 5
ror 5
route 5
ry 5
ry@@ 5
sMap 5
sPath 5
sable@@ 5
samples 5
scalars 5
scan 5
scheduled 5
scroll@@ 5
sdk@@ 5
security@@ 5
sed 5
sendTo@@ 5
ser@@ 5
serializable 5
servlet 5
setAccessible 5
setAttribute 5
setBase@@ 5
setCell@@ 5
setDefault 5
setField@@ 5
setFocus@@ 5
setIndex 5
setLayoutParams 5
setLog@@ 5
setMin@@ 5
setNew@@ 5
setNo@@ 5
setParent 5
setParent@@ 5
setSelected@@ 5
setSource 5
setStart@@ 5
setUn@@ 5
sett@@ 5
setting@@ 5
sion@@ 5
sleep@@ 5
sm 5
snapshot 5
somewhere 5
sp 5
spe@@ 5
special 5
sper@@ 5
spli@@ 5
sprite@@ 5
sqrt 5
square@@ 5
ssh@@ 5
sta@@ 5
sti@@ 5
storage@@ 5
strFile 5
string1 5
stringTo@@ 5
styles 5
subclass@@ 5
suffix 5
support 5
supports@@ 5
tab 5
tags 5
tearDown@@ 5
testSet@@ 5
testSimple@@ 5
textu@@ 5
texture@@ 5
theData 5
tick@@ 5
toReturn 5
toString@@ 5
toURI 5
tour@@ 5
transaction 5
transformer 5
transition@@ 5
tting 5
tz@@ 5
ub 5
ult 5
umb@@ 5
unable 5
unded 5
unpack@@ 5
upload@@ 5
userID 5
userid 5
using_@@ 5
utilities 5
v2" 5
value1" 5
vered 5
vfs 5
via 5
vs 5
wait 5
want 5
water 5
well 5
were 5
widget@@ 5
win 5
windows 5
workers 5
worldIn 5
writing@@ 5
xx@@ 5
year@@ 5
zero 5
zoom@@ 5
í@@ 5
た 5
に@@ 5
の@@ 5
ス@@ 5
三@@ 5
和@@ 5
尚 5
敗@@ 5
"1.0" 4
"2 4
.1 4
.9@@ 4
0-9 4
0-@@ 4
0.02@@ 4
0.03@@ 4
0.0F 4
00000000@@ 4
0X@@ 4
0a@@ 4
0x0000@@ 4
0x00@@ 4
0x0F 4
0xF 4
0xFF 4
1. 4
104 4
105 4
115 4
116 4
1234@@ 4
18" 4
197@@ 4
1F 4
1_ 4
1a 4
1b@@ 4
20" 4
213 4
218@@ 4
255 4
270 4
28.@@ 4
2a 4
30@@ 4
316@@ 4
33333333@@ 4
333333@@ 4
345@@ 4
3600 4
37.@@ 4
384 4
3e@@ 4
49 4
4c@@ 4
5.0 4
5.@@ 4
500@@ 4
512 4
6.@@ 4
79@@ 4
999 4
99@@ 4
:00:00@@ 4
>>= 4
A1@@ 4
AABB 4
ACK 4
ADOW 4
ALIAS 4
ALL@@ 4
ALS 4
AP 4
ARCH@@ 4
ARGS 4
ARGUMENT 4
ARRAY_@@ 4
ART@@ 4
ASSEMB@@ 4
ASSIGN@@ 4
ATOR 4
ATTEMP@@ 4
AUTH@@ 4
AbsolutePath 4
Acceleration 4
AccessController 4
AccessType 4
Activi@@ 4
Actor 4
Actual 4
Again 4
Aler@@ 4
Algorithm@@ 4
Anchor@@ 4
ApplicationContext@@ 4
Approval@@ 4
Archive 4
Are@@ 4
Assist@@ 4
Attr@@ 4
Attrib@@ 4
Audi@@ 4
AuthenticationException 4
Auxiliary@@ 4
BAL@@ 4
BLACK 4
BLUE 4
BP@@ 4
BUC@@ 4
BUF 4
BUFFER@@ 4
BUSINE@@ 4
Backed@@ 4
BackgroundColor 4
Bag@@ 4
Batches 4
Beam@@ 4
Best@@ 4
Between 4
Bill 4
Blank@@ 4
Blob 4
BlockFile 4
Blocks@@ 4
Bodies@@ 4
BodyAnd@@ 4
Bound 4
Bounds 4
BoxLayout 4
Bu@@ 4
BufferedWriter 4
Bug@@ 4
Bytecode@@ 4
BytesRead 4
CELL_@@ 4
CHANGED 4
CHE@@ 4
CLI@@ 4
CLU@@ 4
COMMIT_@@ 4
CONFIG 4
CONNECT 4
CONNECTIONS 4
CONTA@@ 4
CREDENTI@@ 4
CT 4
CacheManager 4
Can 4
Categories 4
Centr@@ 4
Central@@ 4
ChangeList@@ 4
ChannelHandler@@ 4
Channels 4
Chat 4
Chri@@ 4
ClientFactory 4
ClientModel 4
ClientProtocol 4
Closeable 4
Closing 4
Cluster 4
Collation@@ 4
CollectionUtils 4
Collector@@ 4
Collision@@ 4
CommandLine 4
Comparison@@ 4
Complet@@ 4
Complex@@ 4
Composition 4
Confidence 4
Configurer 4
Confirmation 4
Consi@@ 4
Cook@@ 4
Cookie 4
Core 4
Corrupt@@ 4
Cost 4
Cp@@ 4
Creation 4
Ctx 4
Ctx@@ 4
Cycle 4
Cyclic@@ 4
DAY_OF_@@ 4
DD 4
DER 4
DER@@ 4
DESCRIP@@ 4
DES_@@ 4
DEVICE 4
DISABLED 4
DOMAIN 4
DS_@@ 4
DT@@ 4
DataInput 4
DataNode 4
DateTimeZone 4
December 4
Decoration 4
Decryp@@ 4
Defin@@ 4
Define@@ 4
Delayed 4
Delta@@ 4
Deposi@@ 4
Diff@@ 4
Dim 4
DirPath 4
Direct@@ 4
Directed@@ 4
Director 4
Disconnect@@ 4
Dn@@ 4
Du@@ 4
During@@ 4
EM@@ 4
EMAIL 4
ENDPOINT 4
ENT@@ 4
EQUAL 4
ERR_@@ 4
ERS 4
EST@@ 4
EVENT 4
EXISTS 4
EXTERNAL_@@ 4
EXT_@@ 4
EX_@@ 4
Edge@@ 4
Elapsed@@ 4
Elem@@ 4
Else@@ 4
Enable@@ 4
Encrypted 4
Enhance@@ 4
Enter 4
EntityId 4
Eq 4
Err@@ 4
ErrorException 4
ErrorMsg 4
Estim@@ 4
Evalu@@ 4
Evaluator@@ 4
Exact 4
Exchanges 4
Explorer@@ 4
External 4
Extr@@ 4
F32 4
F4@@ 4
FB@@ 4
FIEL@@ 4
FILES 4
FILTER_@@ 4
FIVE 4
FORMA@@ 4
FUNCTION 4
Facets 4
False@@ 4
Feedback 4
Fetch@@ 4
FileWriter 4
Filters@@ 4
FirstChild 4
Flash@@ 4
Flatten@@ 4
Flavor 4
ForType 4
FormLayout 4
Formats 4
Four 4
Front 4
GA@@ 4
GATE@@ 4
GE 4
GEN@@ 4
GRA@@ 4
Generated@@ 4
Geometry@@ 4
Gesture@@ 4
GetRequest 4
Git 4
Google@@ 4
Gram@@ 4
Graphic 4
Graphics2D 4
Greater@@ 4
Guild 4
Guild@@ 4
HEADER 4
HEX@@ 4
HOME 4
HTT@@ 4
H_@@ 4
Han@@ 4
Handles 4
Handshake@@ 4
He@@ 4
Head@@ 4
Hide 4
Hints 4
Hop@@ 4
House 4
Html@@ 4
HttpGet 4
HttpServer@@ 4
I18@@ 4
I18n 4
IB@@ 4
ICON 4
IF 4
IInstruction 4
IMAGE_@@ 4
INF 4
ING@@ 4
INI@@ 4
INS 4
ISO 4
ITALI@@ 4
ITEM_@@ 4
IfAbsent 4
Ignore@@ 4
Il@@ 4
Illegal 4
Images 4
Impl@@ 4
InBytes 4
Incoming@@ 4
IncorrectOperationException 4
Indexer 4
Ingest@@ 4
Initialization 4
Initialize 4
Initializer 4
Initializer@@ 4
Inner@@ 4
Installation 4
Instances 4
IntArray 4
Inter@@ 4
Interfaces 4
Internals 4
Interrup@@ 4
IpAddress 4
Isol@@ 4
Issuer 4
ItemListener 4
JComponent 4
JFrame 4
JOB 4
JScrollPane 4
JarFile 4
Jobs 4
KB 4
KEYCODE_@@ 4
Kafka@@ 4
KeyValue 4
LAST_@@ 4
LAT@@ 4
LEFT_@@ 4
LINE_@@ 4
LIT 4
LL@@ 4
LOCAL_@@ 4
LOGIN 4
LU@@ 4
Launcher@@ 4
Lazy@@ 4
Learning 4
Learning@@ 4
Least@@ 4
Len@@ 4
Lib 4
Libraries 4
ListWith@@ 4
Listing 4
Lite 4
Literal 4
Locks 4
Logger@@ 4
Lower@@ 4
Lumin@@ 4
MAXIMUM_@@ 4
MB@@ 4
ME@@ 4
MER@@ 4
META 4
METHOD_@@ 4
MIME_@@ 4
MIT 4
MOVE 4
Man 4
Man@@ 4
ManagerImpl 4
Managers 4
Markers 4
Matching 4
Materializ@@ 4
Md@@ 4
Membership 4
Michael 4
Mockito@@ 4
ModuleName 4
Mongo@@ 4
MultiMap 4
Multimap 4
Music@@ 4
NL 4
NLS 4
NODE 4
NOR@@ 4
NaN 4
Name2 4
Native@@ 4
Nested 4
Networks 4
NextToken 4
None@@ 4
Nr 4
OK_@@ 4
ONG 4
ONLY 4
OUS_@@ 4
OWL@@ 4
ObjectFactory 4
OfDay 4
Offer@@ 4
Ok 4
OnError 4
OrderBy@@ 4
Ordering@@ 4
Organis@@ 4
Outside 4
PATH_@@ 4
PER@@ 4
PLA@@ 4
PLAIN 4
PNG 4
PRIVATE_@@ 4
PROCESS 4
PROVIDER 4
PUBLIC_@@ 4
Pad@@ 4
PageContext 4
Paging@@ 4
ParameterList 4
Parameterized@@ 4
Params@@ 4
Partitioner 4
PathFor@@ 4
Pause 4
Peek@@ 4
Pitch 4
Pk@@ 4
Placeholder@@ 4
Plot@@ 4
PluginManager 4
PoolSize 4
Popul@@ 4
Prediction@@ 4
Present@@ 4
Prevent@@ 4
Primary 4
Print 4
Priv@@ 4
PrivateKey 4
PrivateKey@@ 4
Procedure 4
PropertyChangeListener 4
Prote@@ 4
Protection@@ 4
PsiJava@@ 4
Python@@ 4
QE@@ 4
QUER@@ 4
QUEUE_@@ 4
RATE 4
READ_ONLY 4
REF@@ 4
REGEX 4
REP@@ 4
REQUEST@@ 4
RESPONSE 4
RET_@@ 4
ROTATION_@@ 4
RUN@@ 4
Reason@@ 4
Rec@@ 4
Reci@@ 4
Recording 4
Records@@ 4
Recover 4
Recur@@ 4
Recursively 4
Redirect 4
ReferenceElement 4
Referenced@@ 4
ReflectionUtils 4
RelativeLayout 4
RelativePath 4
Replica@@ 4
Reply 4
Reports 4
RequestException 4
RequestId 4
Requirement 4
Resolve 4
ResourceException 4
Restaurant 4
ResultSet@@ 4
Retries 4
Returns 4
Revision 4
RootNode 4
Routes 4
Rpc 4
Ru@@ 4
Rules@@ 4
Runn@@ 4
SDK_@@ 4
SECOND 4
SERV@@ 4
SESSION_@@ 4
SETTING 4
SON@@ 4
SQUARE 4
SS 4
STER 4
STIT@@ 4
STREAM_@@ 4
STRUCT 4
ST_@@ 4
SUPER@@ 4
SampleRate 4
Sav@@ 4
Saved 4
Scal@@ 4
Scan@@ 4
Schedu@@ 4
Scheme 4
SearchRequest 4
SearchScope 4
SelectionListener 4
Self 4
Semaphore 4
SendMessage 4
Sequences 4
SerializedSize 4
Services@@ 4
SetId 4
Settable@@ 4
Sibling@@ 4
Side@@ 4
Sil@@ 4
Sms@@ 4
SortOrder 4
SortedSet 4
Specific@@ 4
Stamp 4
Stand@@ 4
Stat@@ 4
StateChange@@ 4
Stick@@ 4
Subject 4
Subscri@@ 4
Subscriber@@ 4
Succeeded 4
Summ@@ 4
Suppres@@ 4
Syn@@ 4
SystemInfo 4
TEMP_@@ 4
TER 4
TERMIN@@ 4
TH 4
TIMEOUT_@@ 4
TIONS 4
TORY_@@ 4
TRANSFORM_@@ 4
TS@@ 4
TWO 4
TYPE@@ 4
TaskStatus 4
Te@@ 4
Teach@@ 4
Tech@@ 4
Temperature@@ 4
TestCases 4
TestContext 4
TestObject 4
TestResult 4
Testing@@ 4
TextAttributes 4
ThanOrEqualTo 4
Then 4
Tick@@ 4
TileEntity 4
Timer@@ 4
Timing 4
ToList 4
TokenTypes 4
Tooltip 4
Training 4
TransactionManager 4
Transformer@@ 4
Treat@@ 4
Typeface 4
UID_@@ 4
UIManager 4
UI_@@ 4
UND@@ 4
UPDATE 4
UPDATED 4
URIUtils 4
URLEncoder 4
URL_@@ 4
USERNAME 4
USE_@@ 4
UU@@ 4
U_@@ 4
UiThread 4
Ultim@@ 4
Underly@@ 4
Underlying@@ 4
Uniform@@ 4
UniformLocation 4
Uninitialized 4
UnknownHostException 4
Unlock 4
Unused@@ 4
Upgrade 4
Us 4
Util@@ 4
VALUE_@@ 4
VARI@@ 4
Vals 4
Value1 4
Value2 4
ValueAsString 4
ValueFor@@ 4
ValueType 4
Vari@@ 4
Variant@@ 4
Viewport@@ 4
Views 4
Visit@@ 4
Vm 4
Voice 4
WAITING 4
WE@@ 4
WHITE 4
WIDGET_@@ 4
WRITE_@@ 4
Wall 4
Warnings 4
Weather 4
WebDriver 4
WebElement 4
WebView@@ 4
Where@@ 4
Which@@ 4
Whole@@ 4
WindowManager 4
Wire@@ 4
XA@@ 4
XContent@@ 4
XContentParser 4
YEAR_@@ 4
ZER@@ 4
ZERO 4
Zeros 4
Zu@@ 4
[0-@@ 4
\u00@@ 4
_SECON@@ 4
_SEG@@ 4
_SETTING 4
_bin 4
_de@@ 4
abc@@ 4
abel 4
abi@@ 4
abstr@@ 4
acc 4
accessToken 4
accessible 4
accumul@@ 4
acting 4
action_@@ 4
activate@@ 4
acy 4
adapt@@ 4
adapter@@ 4
affin@@ 4
agent 4
ager 4
ain@@ 4
alias@@ 4
alone 4
alpha 4
alternate@@ 4
alternative@@ 4
alternatives 4
always@@ 4
ambigu@@ 4
ances 4
anchor 4
ando 4
animate@@ 4
animation 4
apim@@ 4
ari@@ 4
aries 4
arrange@@ 4
asc 4
ask 4
ass 4
assertAll@@ 4
assign 4
assignee 4
associated 4
at_@@ 4
ate_@@ 4
ateg@@ 4
ational@@ 4
ations@@ 4
ative 4
atures@@ 4
b64@@ 4
ba 4
band@@ 4
bf@@ 4
bias@@ 4
bid 4
birth@@ 4
bl 4
blank 4
blk 4
box@@ 4
bufferSize 4
buffered@@ 4
bundle@@ 4
c2@@ 4
callback@@ 4
cancelled 4
cases 4
cess@@ 4
ches@@ 4
choose 4
chrome 4
cht 4
cket 4
clicked 4
clientMessage 4
client_@@ 4
cm 4
cname 4
co 4
coder 4
codi@@ 4
cogn@@ 4
collision@@ 4
company@@ 4
comparison@@ 4
configFile 4
connectTo@@ 4
cons 4
constan@@ 4
constraint@@ 4
constraints 4
construc@@ 4
contain@@ 4
containsValue 4
conversion@@ 4
core@@ 4
correct@@ 4
createFile 4
createRouteBuilder 4
created_@@ 4
cro@@ 4
crop@@ 4
currentValue 4
customers 4
cy 4
d4 4
d5 4
dated 4
dd@@ 4
deactivate 4
decryption 4
deleting 4
deli@@ 4
delivery 4
derive@@ 4
dest@@ 4
detect@@ 4
devices 4
dio@@ 4
director 4
displayName 4
divisor 4
dn@@ 4
dns@@ 4
doGet 4
doPrivileged 4
dobj 4
docstring 4
dot 4
downstream 4
during 4
editor@@ 4
ee 4
els 4
embed@@ 4
encoders 4
encryption 4
endTime 4
ended 4
ends 4
ends@@ 4
eo@@ 4
eof 4
ep_@@ 4
errorMsg 4
evaluate@@ 4
eventData 4
eventType 4
exact@@ 4
exchange@@ 4
executable 4
exitCode 4
expand 4
expand@@ 4
expanded@@ 4
expired 4
export 4
f3 4
f4 4
f4@@ 4
fade@@ 4
ffe@@ 4
fieldNames 4
file2 4
filenames 4
footer 4
forum@@ 4
found@@ 4
fout 4
fragment_@@ 4
fun 4
gateway 4
ger@@ 4
getAs 4
getCharacter@@ 4
getColumns 4
getCondition 4
getContain@@ 4
getCurrent 4
getDeclaredField 4
getEdge@@ 4
getEnd 4
getEntry 4
getError@@ 4
getHostName 4
getInner@@ 4
getInstance@@ 4
getJSONObject 4
getLabel@@ 4
getLeft@@ 4
getLine 4
getMetaData 4
getMetadata 4
getN@@ 4
getNode 4
getNodes 4
getNon@@ 4
getPackage 4
getPlugin@@ 4
getPreferred@@ 4
getPrevious@@ 4
getProtocol@@ 4
getQueue@@ 4
getReference 4
getReturnType 4
getSelectedItem 4
getStart 4
getSuper@@ 4
getSupported@@ 4
getSymbol 4
getVertex@@ 4
getting 4
goto 4
gpu 4
gri@@ 4
grow 4
guard@@ 4
half 4
han@@ 4
handlers 4
hasKey 4
hasMore@@ 4
hbox 4
her@@ 4
hint@@ 4
hir@@ 4
histor@@ 4
hm 4
ho 4
hw@@ 4
icket@@ 4
icons 4
ider@@ 4
ig@@ 4
ighe@@ 4
illegal 4
inc 4
inc@@ 4
incorrect 4
ined@@ 4
info_@@ 4
initialValue 4
initializ@@ 4
install@@ 4
installed 4
interrup@@ 4
ipp@@ 4
iro@@ 4
isAvailable 4
isBlank 4
isNullOrEmpty 4
isOk 4
isOpen 4
isSuccess 4
isation 4
it1 4
itemName 4
itemType 4
itemView 4
iti@@ 4
ito@@ 4
izer 4
jd@@ 4
jf 4
joined 4
jpg 4
json_@@ 4
keyStore@@ 4
ki@@ 4
kick@@ 4
kit 4
kw@@ 4
la 4
lain@@ 4
language@@ 4
latitude 4
layoutParams 4
lead@@ 4
let 4
let@@ 4
lib 4
lin 4
lineHeight 4
lineWidth 4
link_@@ 4
listeners 4
listening 4
literal 4
lm 4
longitude 4
los@@ 4
mData 4
mMin@@ 4
mPath 4
mR@@ 4
machine 4
main_@@ 4
mapped@@ 4
margin@@ 4
marked 4
marker@@ 4
mas@@ 4
master@@ 4
matched 4
math 4
maven 4
maxWidth 4
max_@@ 4
mented@@ 4
metrics 4
mic@@ 4
migrate 4
migration@@ 4
milliseconds 4
minute 4
mirror 4
mise@@ 4
ml@@ 4
mob 4
mode_@@ 4
modify@@ 4
multiple@@ 4
multiplier 4
myEditor 4
neighbor@@ 4
neighbour 4
nes@@ 4
newKey 4
newParent 4
nl 4
nodeType 4
nombre 4
normalize 4
nov@@ 4
now@@ 4
ns@@ 4
nth 4
numer@@ 4
o1 4
o2 4
o_@@ 4
obj2 4
observable 4
oc 4
occured 4
octets 4
ol 4
om 4
onItem@@ 4
onPause 4
onResponse 4
onSuccess 4
once 4
oper 4
operate 4
orderId 4
ordering 4
organ@@ 4
osi@@ 4
otific@@ 4
our 4
outline@@ 4
paramName 4
parameterTypes 4
parentItem 4
parents 4
parms 4
parsed 4
partner@@ 4
pat@@ 4
patterns 4
pct 4
per_@@ 4
percentage 4
perms 4
persist@@ 4
person@@ 4
pes 4
photos 4
pipeline@@ 4
pk 4
pkg_@@ 4
pkt 4
pl 4
plan@@ 4
plat@@ 4
play_@@ 4
pom 4
popul@@ 4
pose@@ 4
postfix 4
pot 4
pping 4
prediction 4
preds 4
presentation 4
press 4
priority@@ 4
processing 4
produces 4
project_@@ 4
promo@@ 4
prun@@ 4
purge@@ 4
qh@@ 4
qualifier@@ 4
question@@ 4
racks 4
rb 4
readData 4
reconnect 4
recursive@@ 4
refer@@ 4
registrar 4
removeAll@@ 4
removeChild 4
rendered 4
rent@@ 4
repositories 4
requestBody 4
requestType 4
requires@@ 4
resourceName 4
reverse 4
rg 4
rig@@ 4
rnd 4
rotate@@ 4
routes 4
rsp@@ 4
runOn@@ 4
s1@@ 4
s2@@ 4
s4 4
s5 4
sConfig 4
sDir 4
sError 4
sOf@@ 4
sTest 4
satis@@ 4
saveFile 4
savepoint 4
scalar 4
schedu@@ 4
schema@@ 4
scheme 4
screen 4
sd@@ 4
select_@@ 4
semble 4
sent@@ 4
ser 4
servers 4
setBounds 4
setCallback 4
setColumn@@ 4
setDuration 4
setLayout@@ 4
setLevel 4
setLocation 4
setPage@@ 4
setPreferredSize 4
setRead@@ 4
setReadOnly 4
setRow@@ 4
setSort@@ 4
setSpacing 4
setStatus@@ 4
setTextColor 4
setTime@@ 4
setUrl 4
setup_@@ 4
sex 4
shape 4
showMessageDialog 4
shrink 4
sic 4
siz@@ 4
sle@@ 4
so@@ 4
solution@@ 4
sortOrder 4
specific 4
spread@@ 4
sr 4
sr@@ 4
stage@@ 4
static@@ 4
statistic 4
stock 4
stock@@ 4
stopping 4
stored 4
strLine 4
string_@@ 4
structure 4
students 4
study@@ 4
subst 4
suc@@ 4
suggesti@@ 4
summary@@ 4
symbo@@ 4
take 4
targetClass 4
tcp@@ 4
tele@@ 4
terminate 4
test1 4
testEmpty@@ 4
those 4
thr 4
threadPool 4
thriftId 4
thumbnail@@ 4
timer@@ 4
to_@@ 4
topology@@ 4
tor_@@ 4
trad@@ 4
train 4
transitions 4
transl@@ 4
try_@@ 4
tv@@ 4
u2 4
uc 4
uncompressed@@ 4
underline 4
undo@@ 4
unlock 4
unsubscribe 4
updated_@@ 4
updating 4
upload 4
usage 4
used@@ 4
username@@ 4
utf 4
uth@@ 4
vbox 4
vel 4
vered@@ 4
verse@@ 4
vert@@ 4
vid 4
videos 4
visibility 4
vm 4
vo 4
volume 4
waiter 4
ware@@ 4
warn@@ 4
watch 4
wd 4
without 4
without_@@ 4
workflow 4
wrapped 4
writable@@ 4
writer@@ 4
wso2 4
xPos 4
yPos 4
ze 4
zer 4
¡ 4
á 4
‗ 4
↑ 4
━ 4
。 4
不@@ 4
个@@ 4
名@@ 4
大@@ 4
开@@ 4
态 4
是 4
梦@@ 4
状@@ 4
用@@ 4
称 4
読@@ 4
込@@ 4
고 4
구 4
동 4
린@@ 4
산@@ 4
서@@ 4
선@@ 4
시 4
앞 4
용@@ 4
울@@ 4
인@@ 4
청@@ 4
파@@ 4
"2014-@@ 3
"2@@ 3
"5" 3
'0' 3
'9' 3
.5 3
0.05 3
0.8@@ 3
0.9 3
0001@@ 3
000@@ 3
08" 3
0x00 3
0x1 3
0x1F 3
0x34 3
1.1" 3
10-@@ 3
100.0 3
1001 3
108 3
123 3
1500 3
153 3
160 3
164@@ 3
189@@ 3
1b 3
2007 3
2007@@ 3
225 3
234 3
234@@ 3
239@@ 3
240 3
255@@ 3
266@@ 3
286@@ 3
2B@@ 3
2F 3
2b 3
304@@ 3
3333@@ 3
350 3
36.@@ 3
39 3
3d@@ 3
4.@@ 3
456 3
468@@ 3
4f 3
51 3
53@@ 3
55 3
57 3
577@@ 3
59 3
5f 3
600@@ 3
62 3
64" 3
65 3
70 3
707@@ 3
76@@ 3
805@@ 3
808@@ 3
8859@@ 3
92 3
96@@ 3
98@@ 3
99 3
ACC 3
AD 3
ADDI@@ 3
ALWAYS 3
APPLICATION_JSON 3
AR 3
ARG@@ 3
ARMOR 3
ARY 3
AR_@@ 3
ASC 3
ASP@@ 3
ASS 3
ASSE@@ 3
AT 3
ATED_@@ 3
ATI@@ 3
ATION 3
AU@@ 3
AX@@ 3
About@@ 3
Accept@@ 3
Accepted 3
AccessControl@@ 3
ActionBar@@ 3
ActionType 3
Actions@@ 3
Additional 3
Advanced@@ 3
Affected@@ 3
AffineTransform 3
Agent 3
Air 3
Alarm@@ 3
Alge@@ 3
Analyzer 3
Ancestor 3
Anonymous 3
ApiResponse 3
Applicable 3
Apply 3
Archi@@ 3
ArrayAdapter 3
Ascii@@ 3
Automatic@@ 3
Autowired 3
Aware@@ 3
Ax@@ 3
AxisFault 3
BG 3
BOX 3
BP 3
BRE@@ 3
BUILD@@ 3
BY@@ 3
BYTES 3
Ba@@ 3
Beans 3
Behavi@@ 3
Behavior@@ 3
Bind 3
Black@@ 3
Blur@@ 3
Bold 3
BooleanValue 3
Boot@@ 3
Bootstrap 3
BorderColor 3
Br@@ 3
Broadcast 3
Buf@@ 3
BufferedInputStream 3
Building 3
Busy 3
But@@ 3
Butter@@ 3
BytesTo@@ 3
C9@@ 3
CAMERA_@@ 3
CENTR@@ 3
CHARACTER 3
CHECK 3
CHECK_@@ 3
CLE@@ 3
CLOSE 3
CLOSE_@@ 3
CODE 3
COMMAND_@@ 3
COMPLE@@ 3
CONFIGURATION_@@ 3
CONNEC@@ 3
CONNECTION_@@ 3
COOKIE 3
COOKIE_@@ 3
COPY@@ 3
CRYP@@ 3
CT@@ 3
CURSOR_@@ 3
CUSTOM_@@ 3
Capacity 3
Capture@@ 3
Cast 3
CellRenderer@@ 3
Certificates 3
ChangedListener 3
ChannelBuffer 3
Characters 3
Checkpoint 3
Children@@ 3
Choice 3
Choice@@ 3
Chun@@ 3
ChunkSize 3
ClassCastException 3
ClassPathXmlApplicationContext 3
Classification 3
Clicked@@ 3
ClientError 3
Clock 3
Col 3
Colon@@ 3
Com 3
Combine@@ 3
Comments 3
Committed 3
CommonData@@ 3
Comparing 3
Compression@@ 3
Concrete@@ 3
Conf@@ 3
Configured 3
Confirm 3
Confirm@@ 3
Confirmed 3
Connected@@ 3
Conserv@@ 3
Constant 3
Construction 3
Construction@@ 3
Contract@@ 3
Contributors 3
Conven@@ 3
Copi@@ 3
Cost@@ 3
Coverage 3
CredentialsProvider 3
Cri@@ 3
Cro@@ 3
DAO@@ 3
DATE 3
DECODE_@@ 3
DEN_@@ 3
DFA 3
DFS_@@ 3
DFS_NAMENODE_@@ 3
DH@@ 3
DOUBLE_@@ 3
DOWNLOAD_@@ 3
DROP 3
DROP_@@ 3
DV@@ 3
DW 3
DataChanged 3
DataOutput 3
Dcm@@ 3
Declaration 3
Decode 3
Decoder@@ 3
Delay@@ 3
Deleg@@ 3
Dependencies 3
Dependent@@ 3
Deserializ@@ 3
Designer@@ 3
Detailed@@ 3
Detec@@ 3
Detection 3
Did 3
Digit@@ 3
Directories 3
Dirty@@ 3
Disconnected 3
Disk 3
Dispos@@ 3
Do 3
DocValues 3
Downloader 3
Drag 3
Drawing@@ 3
Drive@@ 3
Dru@@ 3
Duplicate@@ 3
EA@@ 3
EB@@ 3
ECT_@@ 3
EDITOR 3
EH@@ 3
ENABLE_@@ 3
ENAME 3
ENCODING_@@ 3
ENDER_@@ 3
ENTS 3
EVENTS 3
EXIT 3
EXIT_@@ 3
East 3
Editing 3
ElementAt 3
Enco@@ 3
EndElement 3
EndOffset 3
Engines 3
Enter@@ 3
EntryPoint 3
Envelope@@ 3
Environment@@ 3
Ep@@ 3
Er@@ 3
Estimator 3
Evaluate@@ 3
Executed 3
Executing 3
Existing 3
Exit 3
Expir@@ 3
Explicit@@ 3
Ext@@ 3
Extend 3
F3@@ 3
FAILED 3
FICATION 3
FIELD_NAME 3
FIRST_@@ 3
FLOW_@@ 3
FN_@@ 3
FOR@@ 3
FORMAT 3
FORMAT_@@ 3
FORM_@@ 3
FOUR 3
FRE@@ 3
FSDataOutputStream 3
FTP 3
FT_@@ 3
FUN@@ 3
Fa@@ 3
Facet 3
FactoryImpl 3
FailureException 3
Fer@@ 3
Figure 3
FileException 3
Fill 3
Filters 3
Finalize 3
Fixture@@ 3
Flavor@@ 3
FloatValue 3
Follow@@ 3
Fonts 3
Fraction 3
Freq 3
Freq@@ 3
Fri@@ 3
Ful@@ 3
Future@@ 3
Fuzzy@@ 3
GG@@ 3
GIF 3
GPIO 3
GU@@ 3
GW@@ 3
Gateway 3
Gaussian@@ 3
Generate 3
Generic 3
GetUser@@ 3
Given@@ 3
Go 3
Good@@ 3
Gravity 3
HANDLER_@@ 3
HEAD@@ 3
HH@@ 3
HID@@ 3
HOLDER 3
HOR@@ 3
HTTP 3
Hal@@ 3
Hard@@ 3
Head 3
HeaderSize 3
Health@@ 3
Heap 3
Hello@@ 3
HexString 3
Hint@@ 3
Hosts 3
Html 3
HttpHeader@@ 3
HttpHeaders 3
HttpMessage@@ 3
HttpSession 3
ICON_@@ 3
IDS 3
IDX 3
IGHT 3
IGNORE_@@ 3
IMAGE 3
IMMU@@ 3
IM_@@ 3
INC@@ 3
INDE@@ 3
INDEX@@ 3
INE_@@ 3
INF@@ 3
INFORMATION 3
INIT_@@ 3
INPUT 3
INTE@@ 3
Identifiers 3
Ids@@ 3
If 3
Ignoring 3
Inc 3
IndexMetaData 3
IndexOutOfBoundsException 3
Inheritance@@ 3
Initialize@@ 3
Injec@@ 3
Install 3
IntegerValue 3
IntentFilter 3
Intersection 3
Inv@@ 3
Invocation 3
Italic 3
ItemId 3
JM@@ 3
JP@@ 3
JVM@@ 3
JsonArray 3
JsonCreator 3
KE 3
KET 3
KE_@@ 3
Kafka 3
KeyId 3
KeyListener 3
Keys@@ 3
Kv@@ 3
LD 3
LED 3
LED_@@ 3
LIGHT_@@ 3
LIT_@@ 3
LLI@@ 3
LM@@ 3
LOCATION 3
LObject@@ 3
Lan@@ 3
LanguageLevel 3
Lay@@ 3
Layer@@ 3
Lexer 3
Listen 3
Literal@@ 3
LoadBalancer@@ 3
Locals 3
LogManager 3
LoggerFactory 3
Logic 3
Lucene 3
M2@@ 3
MANAGER_@@ 3
MANIF@@ 3
MBeanServer 3
MENT 3
MOD@@ 3
MODE@@ 3
MORE_@@ 3
MT@@ 3
MULTI 3
Maintenance@@ 3
Make 3
MapType 3
Mapped 3
Marker@@ 3
Market@@ 3
Markup@@ 3
Mat@@ 3
Matches 3
Matches@@ 3
Materialized@@ 3
Medium 3
Merge 3
Mess@@ 3
Met@@ 3
MethodCallExpression 3
Middle@@ 3
Minec@@ 3
Minimum@@ 3
Mirror 3
Mixed@@ 3
Modal@@ 3
ModifyListener 3
ModuleManager 3
Mojo 3
Mono@@ 3
Mount@@ 3
MouseListener 3
Movement 3
Multiple 3
Must 3
Mut@@ 3
NC@@ 3
NT_@@ 3
NUMBER_OF_@@ 3
NX@@ 3
NetworkInterface 3
Neutr@@ 3
NoMore@@ 3
Noise@@ 3
None 3
Notifications 3
Numeric 3
OFFSET_@@ 3
OPERATION_@@ 3
OPTIONS_@@ 3
OS@@ 3
Opt 3
OrThrow 3
Organization@@ 3
Other 3
Outline@@ 3
OutputStreamWriter 3
OutputType 3
Override@@ 3
P2 3
PAR@@ 3
PARAMETER_@@ 3
PARENT_@@ 3
PATH@@ 3
PAY@@ 3
PCollection 3
PID 3
PK 3
PLACE 3
POLIC@@ 3
PO_@@ 3
PRECISION 3
PROTE@@ 3
PROTOCOL_@@ 3
PT@@ 3
PUSH 3
Pager@@ 3
Pages@@ 3
Par 3
Paralle@@ 3
Parameters@@ 3
ParseError 3
ParserFactory 3
Payload@@ 3
Peer@@ 3
PendingIntent 3
People 3
Percent@@ 3
Performed 3
Pet@@ 3
Pi@@ 3
Pointer 3
Populate@@ 3
PosY 3
Postgres@@ 3
Pre 3
Prepared@@ 3
Press 3
Pretty@@ 3
Pri@@ 3
PrivilegedAction 3
Problem 3
ProcessId 3
Profiles 3
PropertyChange 3
PsiReference 3
QD@@ 3
QUEUE 3
Qu@@ 3
Questions 3
RA@@ 3
RADI@@ 3
RAN@@ 3
REAL 3
REFRESH_@@ 3
REL_@@ 3
REQ 3
RESOURCE 3
RESUL@@ 3
RGB 3
RO 3
RU@@ 3
RX_@@ 3
Rack@@ 3
Radial@@ 3
Rand 3
RandomAccessFile 3
Readable 3
Recomm@@ 3
Red@@ 3
Refer@@ 3
Reflec@@ 3
Registrar 3
Regular@@ 3
Reload@@ 3
RemoveAll@@ 3
Rename@@ 3
Renderer@@ 3
Repor@@ 3
Req@@ 3
Required 3
Resolver@@ 3
Restart@@ 3
Retrieve@@ 3
ReturnValue 3
Revo@@ 3
RowCount 3
RowMeta 3
RowMetaInterface 3
Rt@@ 3
SAND@@ 3
SASL 3
SAX@@ 3
SC@@ 3
SCHEME_@@ 3
SECURITY_@@ 3
SED_@@ 3
SER@@ 3
SHI@@ 3
SLE@@ 3
SMALL_@@ 3
SOURCE_@@ 3
SP 3
SPACE 3
START 3
STATUS 3
STOP_@@ 3
SUP@@ 3
SYSTEM 3
Samp@@ 3
Sampling 3
Saved@@ 3
ScaleFactor 3
Sche@@ 3
ScheduledExecutorService 3
Scorer 3
Scores 3
Scrol@@ 3
See 3
Sensitivity 3
Serial 3
Serv@@ 3
ServiceException 3
Sheet@@ 3
Sign@@ 3
Similar 3
Sip@@ 3
SizeInBytes 3
SizeOf@@ 3
Skipping 3
Sleep@@ 3
Slop 3
Slow 3
Sm@@ 3
Small@@ 3
SocketChannel 3
Solver 3
Sources@@ 3
Spann@@ 3
Spe@@ 3
Spinner@@ 3
Splits 3
Spread@@ 3
Src 3
StackSize 3
StartElement 3
StartTime 3
StartsWith 3
StateChanged 3
Stateful@@ 3
Static 3
Statistic 3
Stax@@ 3
Stor@@ 3
Streaming@@ 3
StringHelper 3
StringTo@@ 3
StringValue 3
Submit 3
Suffix 3
Suggesti@@ 3
Sun@@ 3
Suppress@@ 3
Sw@@ 3
Syntax@@ 3
TB@@ 3
TEST@@ 3
THER_@@ 3
TI@@ 3
TIME@@ 3
TIVE 3
TIVE_@@ 3
TOPIC 3
TOP_@@ 3
TOR_@@ 3
TOTAL 3
TR@@ 3
TRANSPARENT 3
TRY_@@ 3
TWE@@ 3
TableCell@@ 3
Tagged@@ 3
Tags@@ 3
TestData 3
TestName 3
Test_@@ 3
Tests@@ 3
TextChanged 3
TextMessage 3
TextStyle 3
Th@@ 3
Theme@@ 3
There 3
This@@ 3
Threads@@ 3
Throwable@@ 3
Tim@@ 3
TimeoutException 3
Times 3
Tit@@ 3
Tmp@@ 3
ToBe@@ 3
ToFile 3
ToNext@@ 3
Togg@@ 3
Topology 3
Track@@ 3
Transactional@@ 3
Transient 3
Trie 3
TrustManager 3
Try 3
Turn@@ 3
Tw@@ 3
TypeElement 3
TypeMap 3
TypeString 3
UC@@ 3
UFF@@ 3
UInt8 3
ULAR_@@ 3
UNDER@@ 3
UNIX 3
UNKNOWN 3
UTE_@@ 3
UTF8@@ 3
Unexpected 3
Uni@@ 3
Unresolved@@ 3
Upper@@ 3
UserData 3
UserException 3
VARIANT 3
VERI@@ 3
VO@@ 3
VR 3
Val@@ 3
ValidationException 3
Variant 3
Verification@@ 3
Verifier 3
Vertical@@ 3
Visi@@ 3
Visu@@ 3
Vm@@ 3
WITH_@@ 3
WRITE 3
WSO@@ 3
WS_@@ 3
WW@@ 3
Waiter 3
WaitingFor@@ 3
Weak@@ 3
WebServer 3
WhiteSpace 3
Whitespace@@ 3
Wild@@ 3
Wire 3
WorkQueue 3
Worker 3
WorkerThread 3
World@@ 3
XMLE@@ 3
XPath@@ 3
XY@@ 3
Y1 3
Y2 3
YUV@@ 3
Your 3
Z_@@ 3
[0 3
_SEC@@ 3
_SESSION_@@ 3
_SIZE_@@ 3
_SUP@@ 3
__ 3
__set@@ 3
_assert 3
_find@@ 3
_h@@ 3
_is@@ 3
_key@@ 3
_model 3
_position 3
_tag 3
a4 3
absolute@@ 3
accessor 3
ace 3
activities 3
acts 3
addCallback 3
addProperty 3
ae 3
ager@@ 3
aging@@ 3
al_@@ 3
ality@@ 3
ally 3
aml@@ 3
ang 3
ang@@ 3
animation@@ 3
anis@@ 3
anonymous 3
another 3
ao@@ 3
appContext 3
appear 3
appendChild 3
applicationContext 3
apps 3
arraySize 3
as_@@ 3
ash 3
ason 3
assertNo@@ 3
assertions 3
assignment@@ 3
assignments 3
ast_@@ 3
ated_@@ 3
ather 3
attachment@@ 3
attempt@@ 3
attributeValue 3
au@@ 3
authenticated 3
authorization 3
authorization@@ 3
aux@@ 3
average@@ 3
await@@ 3
awe@@ 3
back 3
bag@@ 3
balance@@ 3
bang 3
bash 3
being 3
ber 3
bert 3
bg@@ 3
bill 3
birthday 3
bmp@@ 3
bor@@ 3
bos 3
both 3
bounds 3
br@@ 3
bro@@ 3
bs 3
bt@@ 3
btn_@@ 3
builtin@@ 3
bur@@ 3
byteValue 3
c3 3
cached 3
calc@@ 3
callbacks 3
cb@@ 3
center@@ 3
cert@@ 3
cha@@ 3
chars@@ 3
checkbox 3
checkpoint@@ 3
choice@@ 3
chron@@ 3
cl 3
clip@@ 3
cmds 3
cmp 3
coffe@@ 3
collec@@ 3
come@@ 3
commits 3
compar@@ 3
completion@@ 3
components 3
compose@@ 3
concurrent 3
configured 3
constructors 3
cont 3
contain 3
contribu@@ 3
contributors 3
convertTo@@ 3
converter@@ 3
cookies 3
could 3
count2 3
createElement 3
creating 3
creation 3
cred 3
critical 3
csv@@ 3
currentRow 3
currentUser 3
cus 3
cxf 3
d0 3
dates 3
dav@@ 3
deadline 3
dec@@ 3
declared 3
default_@@ 3
deleted@@ 3
demo 3
demo@@ 3
deps 3
dered@@ 3
detai@@ 3
detec@@ 3
detection 3
dex@@ 3
dimen@@ 3
ding 3
dio 3
directories 3
disabled_@@ 3
disk 3
doNot@@ 3
dog@@ 3
don 3
don@@ 3
downloaded 3
dp@@ 3
draw 3
drawRect 3
drop 3
drop@@ 3
duplicate 3
dur 3
duration@@ 3
eat@@ 3
ech 3
echo 3
eclipse 3
edi@@ 3
ee@@ 3
eg 3
ei 3
either 3
enci@@ 3
encrypted@@ 3
enforce@@ 3
enough 3
entered 3
entityManager 3
equals@@ 3
erFactory 3
era 3
ered@@ 3
erior 3
errorHandler 3
esp@@ 3
eti@@ 3
ev@@ 3
evaluation 3
evaluator 3
evel@@ 3
exe 3
execution@@ 3
expiration@@ 3
expire 3
expression@@ 3
extension@@ 3
f2 3
f5 3
facebook@@ 3
facets 3
factor 3
fai@@ 3
fake 3
fc 3
feed 3
ferred@@ 3
fetch 3
fication@@ 3
fil@@ 3
filesize 3
filesystem 3
filler 3
finaliz@@ 3
findAll@@ 3
findElement 3
fitness 3
flat 3
flat_@@ 3
flattened 3
fly@@ 3
follow@@ 3
fontMetrics 3
forEach@@ 3
form_@@ 3
fragment@@ 3
free 3
free@@ 3
frozen@@ 3
funcName 3
futures 3
fuzzy@@ 3
gamma 3
gb 3
generic 3
generics 3
getApp@@ 3
getBean@@ 3
getBlock 3
getByName 3
getCache 3
getChannel@@ 3
getChildAt 3
getClient 3
getConf 3
getContainer@@ 3
getContentSize 3
getContentType 3
getDefaultInstance 3
getEndpoint@@ 3
getEnvironment 3
getException 3
getFields 3
getFilter@@ 3
getFirstChild 3
getFloat 3
getFrame@@ 3
getFunction@@ 3
getGroup 3
getIcon 3
getIcon@@ 3
getItemCount 3
getLayoutParams 3
getLevel 3
getMap 3
getMap@@ 3
getMember@@ 3
getMeta@@ 3
getMetrics 3
getMockEndpoint 3
getMy@@ 3
getNext 3
getO@@ 3
getOperand 3
getOut 3
getOwner 3
getParentFile 3
getPoint 3
getRight@@ 3
getRuntime@@ 3
getScreen@@ 3
getSettings 3
getSimple@@ 3
getStartTime 3
getState@@ 3
getT@@ 3
getTexture@@ 3
getToken 3
getTop@@ 3
getUri 3
getW@@ 3
getWindow@@ 3
getWork@@ 3
getZ@@ 3
gif 3
govern@@ 3
graph_@@ 3
graphic 3
gs 3
gu@@ 3
handleMessage 3
hed@@ 3
helper@@ 3
hemer@@ 3
hierarch@@ 3
hit@@ 3
hits 3
hz 3
i1 3
i4@@ 3
ia 3
ible 3
ice 3
ico 3
identifiers 3
ify@@ 3
ign@@ 3
il 3
image_@@ 3
img@@ 3
import 3
importing 3
ims 3
in1 3
in2 3
includes 3
ingClass 3
initCause 3
initData 3
initialized@@ 3
injec@@ 3
inline@@ 3
inputFile 3
install 3
installed_@@ 3
instant 3
interface 3
intersection 3
invalidate 3
invalidate@@ 3
inverse 3
ipher 3
isElement@@ 3
isInstance 3
isStatic 3
isSub@@ 3
isUn@@ 3
is_not_@@ 3
ish 3
it_@@ 3
italic 3
ite 3
iterator@@ 3
ix@@ 3
ja 3
ka@@ 3
kbase 3
kers 3
key1 3
kick 3
kill@@ 3
kinds 3
klass 3
lab 3
large 3
lated@@ 3
latency 3
lb 3
ldap 3
leaving 3
ler 3
less@@ 3
letters 3
limits 3
linked@@ 3
log_level 3
logic 3
loud@@ 3
lover@@ 3
m2@@ 3
m_p@@ 3
map2 3
mari@@ 3
materializ@@ 3
mbeanServer 3
md@@ 3
media@@ 3
mediaType 3
mem 3
membership 3
messageType 3
meta 3
mgr 3
ming@@ 3
mises 3
mismatch 3
missing 3
mix 3
mn@@ 3
modification 3
more_@@ 3
msgs 3
multiplic@@ 3
muted 3
nam@@ 3
named@@ 3
nas@@ 3
need 3
neighbors 3
nel 3
newFile 3
newHashMap 3
news 3
nf 3
nife 3
noop 3
normalization 3
note 3
nothing 3
nt 3
nu@@ 3
null@@ 3
numColumns 3
observe@@ 3
obtain 3
offline@@ 3
ol@@ 3
onCompleted 3
onNext 3
on_@@ 3
onym@@ 3
openStream 3
operators 3
options@@ 3
ordering@@ 3
ordin@@ 3
organization@@ 3
ork 3
outcome 3
outputFile 3
overridden 3
own@@ 3
packages 3
packet@@ 3
paid 3
paper 3
parameterIndex 3
parameterName 3
passphrase 3
pb@@ 3
pd@@ 3
pending@@ 3
persist 3
persistent 3
pg@@ 3
pho@@ 3
phys@@ 3
pitch 3
please 3
plus@@ 3
pm 3
pojo 3
popup@@ 3
por@@ 3
port@@ 3
portion 3
portlet@@ 3
positive 3
predict@@ 3
presenter 3
printer 3
profile@@ 3
projection@@ 3
propo@@ 3
propor@@ 3
provi@@ 3
provide@@ 3
providers 3
pth 3
push@@ 3
pw@@ 3
qq@@ 3
qt 3
queued 3
quit 3
randomBoolean 3
ratings 3
readBuffer 3
readFrom@@ 3
readInt 3
readable@@ 3
readerIndex 3
reading 3
realloc 3
recent 3
recommend@@ 3
recover 3
recy@@ 3
refe@@ 3
reflection 3
regions 3
removeFrom@@ 3
removeItem 3
rend@@ 3
renderer@@ 3
replacement 3
replay@@ 3
replica@@ 3
rest 3
restart@@ 3
restore 3
resume 3
retry@@ 3
returned@@ 3
rever@@ 3
rgb 3
robo@@ 3
role@@ 3
ros 3
route@@ 3
rv@@ 3
rv_@@ 3
sAction 3
sData 3
sDialog 3
sText 3
sWith 3
sWithout@@ 3
same@@ 3
save_@@ 3
scalar@@ 3
scanner 3
scene 3
scorer 3
scr 3
scr@@ 3
scription 3
secs 3
see 3
seek 3
selectAll 3
selector 3
semb@@ 3
sent 3
serial@@ 3
serialize@@ 3
serialized@@ 3
serv@@ 3
serve@@ 3
sessions 3
setAction@@ 3
setAlpha 3
setBackground@@ 3
setBody 3
setDaemon 3
setEnd@@ 3
setError@@ 3
setFocus 3
setIn@@ 3
setInt 3
setLabel@@ 3
setM@@ 3
setMessage@@ 3
setObject 3
setOrientation 3
setParameter 3
setProperties 3
setSelection@@ 3
setString 3
setText@@ 3
setTextSize 3
setTo@@ 3
setView@@ 3
setWrite@@ 3
severe 3
sex@@ 3
sg@@ 3
share@@ 3
shortName 3
shp 3
shuffle_@@ 3
signal 3
sin 3
sing 3
sip@@ 3
slashes 3
slope 3
solver 3
something 3
sorted 3
soup 3
span@@ 3
specification 3
speech@@ 3
sphrase 3
splits 3
ssa@@ 3
startTime 3
started@@ 3
starting 3
statuses 3
stdout 3
steer@@ 3
ster@@ 3
sto 3
stores 3
stra@@ 3
strike@@ 3
stringify 3
submitted 3
subscri@@ 3
subscribed 3
subtype 3
summaries 3
sup@@ 3
supports 3
sure 3
sw 3
swap 3
swap_@@ 3
sy@@ 3
tang@@ 3
tcp 3
tern@@ 3
ternatives 3
tes 3
tesian@@ 3
test_with_@@ 3
there 3
thing@@ 3
thisValue 3
threshold 3
tic 3
ticker 3
ticket@@ 3
time_@@ 3
toBe@@ 3
toHexString 3
toInt 3
toMap 3
toRemove 3
today 3
tok 3
tori@@ 3
training 3
transfer 3
transfer_@@ 3
transi@@ 3
tri@@ 3
trust 3
tst 3
tt 3
twe@@ 3
two 3
txs 3
type1 3
type2 3
u4 3
ual@@ 3
ud 3
udf 3
udge@@ 3
uel 3
umed 3
under 3
under@@ 3
unexpectedly 3
uni@@ 3
unique@@ 3
unknownFields 3
unmarshal 3
unmodifiable@@ 3
unmodifiableMap 3
updates 3
uses@@ 3
utput@@ 3
v1 3
v5 3
val2 3
validation@@ 3
valueChanged 3
valueType 3
value_@@ 3
var_@@ 3
vcs@@ 3
ved@@ 3
vent 3
verification 3
vertical 3
vertices 3
vide@@ 3
viewHolder 3
w0@@ 3
want@@ 3
wel@@ 3
wh@@ 3
wifi 3
workload 3
wr 3
writes 3
wrong 3
ww@@ 3
xe 3
xsd 3
yaml 3
yield 3
ym 3
yn@@ 3
yo@@ 3
zi@@ 3
zk 3
£ 3
¼@@ 3
い@@ 3
ジ@@ 3
ビ@@ 3
ペ@@ 3
ュ@@ 3
为 3
凡 3
列@@ 3
卷@@ 3
发@@ 3
取@@ 3
号@@ 3
器@@ 3
序@@ 3
我@@ 3
或@@ 3
捐@@ 3
数据@@ 3
无@@ 3
是@@ 3
机@@ 3
请@@ 3
谢@@ 3
败 3
非@@ 3
"10" 2
"1@@ 2
"4 2
#@@ 2
'2' 2
'3' 2
'4' 2
'5' 2
'6' 2
'7' 2
'8' 2
(@@ 2
,@@ 2
-2 2
.1f 2
/= 2
0. 2
0.0" 2
0.0001 2
0.01@@ 2
0.15 2
0.16@@ 2
0.18@@ 2
0.3@@ 2
0.4@@ 2
0.6 2
0.65@@ 2
0.7@@ 2
0.8 2
0.87@@ 2
0.9@@ 2
00" 2
01" 2
02X 2
054 2
088@@ 2
0e@@ 2
0x 2
0x000000@@ 2
0x03 2
0x10 2
0x1e@@ 2
0x21 2
0x3 2
0x3f 2
0x4 2
0x7f 2
1.00@@ 2
1.5 2
100.@@ 2
10000@@ 2
100L 2
102 2
1024@@ 2
11.@@ 2
111 2
114 2
12000 2
125 2
125@@ 2
127 2
144 2
161 2
165 2
166 2
175@@ 2
19.@@ 2
192 2
195 2
1d 2
2-@@ 2
20.0 2
20000 2
2002 2
2008 2
2008@@ 2
2009@@ 2
201 2
201@@ 2
208 2
212@@ 2
2334@@ 2
248 2
265@@ 2
267@@ 2
288 2
289@@ 2
299@@ 2
2U 2
2_ 2
314@@ 2
325 2
329@@ 2
333 2
336 2
339@@ 2
366@@ 2
389@@ 2
3D@@ 2
3E@@ 2
3d 2
4.0f 2
401 2
403 2
408@@ 2
415@@ 2
41@@ 2
426@@ 2
433@@ 2
43@@ 2
45.@@ 2
466@@ 2
469@@ 2
488@@ 2
4E@@ 2
4d 2
4d@@ 2
4i 2
503@@ 2
50@@ 2
512@@ 2
528@@ 2
53 2
539@@ 2
544@@ 2
545@@ 2
54@@ 2
585@@ 2
589@@ 2
58@@ 2
6-@@ 2
60000 2
60@@ 2
615@@ 2
639@@ 2
65535 2
655@@ 2
66 2
69 2
7" 2
704@@ 2
708@@ 2
720 2
74 2
748@@ 2
7f 2
804@@ 2
8080 2
811@@ 2
819@@ 2
838@@ 2
84 2
86@@ 2
88 2
899@@ 2
8e@@ 2
9.@@ 2
90@@ 2
93 2
95 2
97 2
98 2
ABILITY 2
ACCELER@@ 2
ACCESS 2
ACT 2
AF_INET 2
AF_INET6 2
AGES 2
AL_S@@ 2
AND_@@ 2
ANSW@@ 2
ANT_@@ 2
APP 2
APP_@@ 2
AQ@@ 2
ARD 2
ARE@@ 2
ARM 2
ART 2
ASTR@@ 2
ATTRIBU@@ 2
AUTH 2
AW@@ 2
Above@@ 2
AbstractAction 2
Accumul@@ 2
Accumulator 2
Ack 2
Activate 2
Activate@@ 2
Activation 2
Actu@@ 2
Adding 2
Adjust@@ 2
Administrator 2
Af@@ 2
Age 2
Album@@ 2
Alg 2
Allocator 2
Ampli@@ 2
Analytics@@ 2
Ancestor@@ 2
Android 2
Anonymous@@ 2
Answ@@ 2
Arguments@@ 2
ArrayIndexOutOfBoundsException 2
Arri@@ 2
Arrow 2
Art 2
Artist@@ 2
AsStream 2
Assembly@@ 2
Atomic@@ 2
Attach 2
Attached@@ 2
AttributeSet 2
Audience 2
Aug@@ 2
Aura@@ 2
AuthenticationToken 2
Avatar@@ 2
Average 2
Aw@@ 2
BACK@@ 2
BACKGROUND 2
BAS@@ 2
BASE_URL 2
BGR 2
BI@@ 2
BIG_@@ 2
BINARY 2
BIND_@@ 2
BK@@ 2
BL@@ 2
BODY_@@ 2
BO_@@ 2
BRI@@ 2
BT@@ 2
BUFFER 2
BUIL@@ 2
BUR@@ 2
BUTTON_@@ 2
BadRequest 2
Band 2
Bands 2
Bank 2
Barrier 2
BaseTest 2
BaseType 2
Basis@@ 2
Bat@@ 2
Been@@ 2
Begin@@ 2
Bench@@ 2
Bid@@ 2
BigInteger 2
Bir@@ 2
Bl@@ 2
Blend 2
Blocked@@ 2
BorderLayout 2
Bot 2
Both@@ 2
Boxes 2
Break@@ 2
BroadcastReceiver 2
Buckets 2
BufferedOutputStream 2
Builders 2
Builtin 2
Bukkit 2
Bundle@@ 2
BundleContext 2
Bus 2
ByDefault 2
Byp@@ 2
ByteBuf@@ 2
C5@@ 2
CA 2
CAL@@ 2
CAN@@ 2
CANCE@@ 2
CANCEL_@@ 2
CAP@@ 2
CAT@@ 2
CATE 2
CATEG@@ 2
CB@@ 2
CDATA@@ 2
CERTIFI@@ 2
CES 2
CHAR 2
CHARGE 2
CHARSET 2
CHRO@@ 2
CIPH@@ 2
CIRC@@ 2
CK 2
CK_@@ 2
CLEAR_@@ 2
CLOSED 2
CODE@@ 2
COLLEC@@ 2
COMBIN@@ 2
COMPONE@@ 2
COMPONENT 2
CONF_@@ 2
CONN_@@ 2
CONSUM@@ 2
CONT@@ 2
CONTENT_TYPE 2
CONTINU@@ 2
COPY 2
COPY_@@ 2
CREATED 2
CSRF 2
CTION 2
CUSTOM 2
Cached 2
Cached@@ 2
Caches 2
Calculate@@ 2
Calculator 2
Campa@@ 2
Cance@@ 2
Cap 2
Capability@@ 2
Cardinality 2
Cas@@ 2
CaseSensitive 2
Catalog 2
Catalog@@ 2
Catch 2
Cau@@ 2
Chain@@ 2
ChangedEvent 2
CharTo@@ 2
Checker@@ 2
Checkpoints 2
Chro@@ 2
Circular@@ 2
ClassInfo 2
ClassNode 2
ClassPath 2
Classpath 2
Cleanup@@ 2
ClickEvent 2
Clo@@ 2
Clone 2
Closed@@ 2
Closing@@ 2
Cn@@ 2
Cnt 2
Collect 2
Collected@@ 2
Colo@@ 2
ComboBox@@ 2
Committer 2
Common 2
Comparable 2
Compatibility 2
Compilation@@ 2
Compiler 2
Comple@@ 2
CompletableFuture 2
Completed@@ 2
Complex 2
Composition@@ 2
Compound 2
Compound@@ 2
Con 2
Configurator 2
Confirmation@@ 2
Conformance 2
Connector_@@ 2
Consider 2
Console@@ 2
Constra@@ 2
Construct 2
Continuous@@ 2
Conv@@ 2
Cookies 2
Copy 2
Cor@@ 2
Could@@ 2
Counter@@ 2
Counting@@ 2
Credit@@ 2
Critical 2
Csv@@ 2
Ctrl@@ 2
Cur@@ 2
Currency@@ 2
Custo@@ 2
Custom 2
Cxx@@ 2
DEF_@@ 2
DEL@@ 2
DELAY 2
DELI@@ 2
DELIMI@@ 2
DEN@@ 2
DETAIL_@@ 2
DEV@@ 2
DF@@ 2
DIGE@@ 2
DIRECTORY_@@ 2
DISAB@@ 2
DISCOVER@@ 2
DL@@ 2
DOC_@@ 2
DOM 2
DP@@ 2
DRA@@ 2
DUMMY 2
DX 2
Da@@ 2
Dam@@ 2
Damage 2
Dashboard@@ 2
Dat@@ 2
DataNodes 2
DataStore 2
Datas 2
Dead 2
Death 2
Debugger@@ 2
Dec@@ 2
Deci@@ 2
Declarations 2
Decoded@@ 2
Decoration@@ 2
Delayed@@ 2
Delimited@@ 2
Delivery 2
Demand 2
Demo 2
Dep@@ 2
Deprecation@@ 2
Desired@@ 2
Detach 2
Detected 2
Dev@@ 2
Dex@@ 2
Dialect 2
DialogFragment 2
Dialogs 2
Digits 2
Disable 2
Discovery 2
Dispo@@ 2
Dist@@ 2
Distance@@ 2
Distinct@@ 2
Dj@@ 2
DoNot@@ 2
Documentation@@ 2
DoesNotExist 2
Downloading 2
Dro@@ 2
Dump 2
EA_@@ 2
EB 2
EDGE 2
EG@@ 2
EIG@@ 2
ELLIPSIS 2
ELL_@@ 2
EMAIL_@@ 2
EMPTY@@ 2
ENABLED_@@ 2
ENCHAN@@ 2
ENCODING 2
ENCY 2
ENTER 2
ENTITY 2
ENTITY_@@ 2
EP 2
EPOC@@ 2
EQ 2
EQ@@ 2
EST 2
ET 2
EXCLU@@ 2
EXCLUSIVE 2
EXISTING 2
EXP@@ 2
EXPRESSION 2
EXTERNAL 2
Eager@@ 2
Ed@@ 2
El@@ 2
Eli@@ 2
Ellip@@ 2
Encode@@ 2
EndPoint@@ 2
Energy@@ 2
Enough@@ 2
Entries@@ 2
EntryType 2
EnumValue 2
Episo@@ 2
Epoch 2
Epsilon 2
ErrMsg 2
Errno 2
ErrorReason 2
ErrorResponse 2
ErrorString 2
Evaluation 2
Evaluation@@ 2
EventObject 2
EventQueue 2
Exactly 2
Exce@@ 2
Expand 2
Exper@@ 2
Expi@@ 2
Extensions@@ 2
F2@@ 2
FACTOR 2
FAI@@ 2
FALSE 2
FATAL 2
FC@@ 2
FF 2
FFF 2
FIELD 2
FIELDS 2
FILES_@@ 2
FIN@@ 2
FINAL 2
FIND_@@ 2
FINE 2
FINISH 2
FIR@@ 2
FIT@@ 2
FL 2
FN 2
FO@@ 2
FOLDER 2
FOUND 2
FOUR@@ 2
FRAGMENT_@@ 2
FRAME_@@ 2
FRO@@ 2
FRONT 2
FS 2
FULL@@ 2
FULLSCREEN 2
FX@@ 2
Face 2
Facebook@@ 2
FacesContext 2
FactoryBean 2
Failover@@ 2
Failures 2
Families 2
Family@@ 2
Fee@@ 2
Feed 2
FileExists 2
FileFormat 2
FileNode 2
FilePath@@ 2
Filename@@ 2
FlowFile 2
ForName 2
Foreground@@ 2
Fork@@ 2
FormatException 2
Found@@ 2
Frag@@ 2
Friend 2
FromParent 2
Frontend 2
Frozen@@ 2
Fu@@ 2
FunctionType 2
GB@@ 2
GC@@ 2
GET@@ 2
GLO@@ 2
GN@@ 2
GRAP@@ 2
GRO@@ 2
GROUPS 2
GSS@@ 2
Ge@@ 2
Gender 2
Generate@@ 2
GeneratedMessage 2
GenesisBlock 2
Geometry 2
GetAll@@ 2
GetData 2
GetLast@@ 2
GetString 2
GetToken 2
Given 2
Globals 2
Gp@@ 2
Gra@@ 2
Grade 2
Grammar@@ 2
GreaterThan 2
Gro@@ 2
Guid 2
Guide 2
Guide@@ 2
HEADER@@ 2
HEIGHT 2
HEIGHT_@@ 2
HOUR_@@ 2
HTML 2
Hadoop@@ 2
Hardware 2
Hashed@@ 2
Hat 2
Height@@ 2
Hidden 2
Hide@@ 2
Hierarchy 2
Hit@@ 2
Hol@@ 2
Horizontal@@ 2
HostAddress 2
Hostname 2
Htt@@ 2
HttpURLConnection 2
Hu@@ 2
Hyper@@ 2
IA@@ 2
IC@@ 2
ICE 2
IDENTITY 2
IJ@@ 2
IL 2
ILI@@ 2
IMAGE@@ 2
IMPLIC@@ 2
IMPORT 2
INDENT 2
INE 2
ING_S@@ 2
INITIAL_@@ 2
INNER 2
INSTANCE_@@ 2
INTERNAL 2
INTERVAL_@@ 2
INVISIBLE 2
INV_@@ 2
IPv6 2
ISO_@@ 2
IV@@ 2
Ice 2
Id2 2
Id_@@ 2
Idea@@ 2
Identifier@@ 2
Iface 2
Ignored 2
ImageFormat 2
Inc@@ 2
Include@@ 2
Inclusive 2
IndexReader 2
IndexSettings 2
Indexed@@ 2
Indicator@@ 2
Individual@@ 2
Inet@@ 2
Inf@@ 2
Inject@@ 2
InputMethod@@ 2
InputType 2
Insert 2
Inspection 2
InspectionGadgetsBundle 2
Inspector 2
Inst 2
Instan@@ 2
Interpolator 2
Intersection@@ 2
InvalidProtocolBufferException 2
Inver@@ 2
Invoice@@ 2
IsEnabled 2
IsNull 2
Iterators 2
JAR 2
JC@@ 2
JUnit@@ 2
JavaScript 2
Jdbc@@ 2
Jen@@ 2
Jenkins 2
JndiRegistry 2
Jobs@@ 2
Joystick 2
JsonParser 2
JsonToken 2
Jump@@ 2
KE@@ 2
KS_@@ 2
Ke@@ 2
Keep@@ 2
KeyException 2
KeyMap 2
LAN@@ 2
LAND@@ 2
LATION_@@ 2
LDAP 2
LEG@@ 2
LEGACY_@@ 2
LEVEL 2
LIMITED 2
LIN@@ 2
LING_@@ 2
LINK 2
LINK_@@ 2
LM 2
LOCAL@@ 2
LOGGER_@@ 2
LOGGING 2
LP 2
Lang@@ 2
Later@@ 2
Latitude 2
Least 2
Leave@@ 2
Leni@@ 2
Less@@ 2
LessThan 2
Lev@@ 2
Lexer@@ 2
Lifecycle 2
Limiter 2
LineWidth 2
Lint 2
ListType 2
ListenableFuture 2
Listening 2
Loan@@ 2
LogHandler 2
LogLevel 2
Logo 2
Longitude 2
Look@@ 2
LookAndFeel 2
Loop 2
Loss 2
Lou@@ 2
Low 2
Low@@ 2
MAL@@ 2
MAR@@ 2
MASTER 2
MATCH 2
MATCH@@ 2
MATCH_PARENT 2
MAV@@ 2
MD_@@ 2
MEDIA 2
MEMB@@ 2
METRICS 2
MF 2
MILLI@@ 2
MINUS 2
MINUTE 2
MISSING_@@ 2
ML 2
MODEL_@@ 2
MODULE@@ 2
MOVE@@ 2
MS_@@ 2
MULTI@@ 2
MY 2
MY@@ 2
Ma@@ 2
Macro 2
Mag@@ 2
Mal@@ 2
Management 2
Management@@ 2
ManagementService 2
Many@@ 2
MapEntry 2
Marked 2
Matched@@ 2
Maximum 2
MediaPlayer 2
Mediator 2
Mel@@ 2
MessageBox 2
MessageFactory 2
MessageId 2
Messenger 2
Millis 2
Mime@@ 2
Mip@@ 2
Mobile 2
MockEndpoint 2
Modbus@@ 2
ModelAndView 2
Model_@@ 2
Models 2
Modes 2
Modifiable@@ 2
ModuleType 2
Mor@@ 2
Most@@ 2
Mother 2
Move 2
Ms@@ 2
Msgs 2
Multip@@ 2
Multiplic@@ 2
NAMESPACE 2
NAN@@ 2
NESS_@@ 2
NET 2
NEVER 2
NEW 2
NODE_@@ 2
NOOP 2
NOTIFICATION_@@ 2
NOW 2
NULL_@@ 2
NUMBER_@@ 2
NameException 2
NameValuePair 2
NamedNodeMap 2
NamingException 2
Near@@ 2
Neare@@ 2
Nec@@ 2
Negative 2
Never@@ 2
Ni@@ 2
NonNls 2
Normalized 2
OD 2
OFF 2
OK@@ 2
OMElement 2
ONLY_@@ 2
OPEN 2
OPEN_@@ 2
ORIEN@@ 2
OS_@@ 2
OU@@ 2
OUT_@@ 2
OVER@@ 2
ObjectAnimator 2
ObjectNode 2
ObjectOutputStream 2
Objects@@ 2
Oct@@ 2
Old 2
OnExit 2
Online 2
Operand 2
Operand2 2
Optim@@ 2
Optimizer 2
OrEmpty 2
Oracle 2
Oracle@@ 2
Ordering 2
Orders 2
Org 2
Orient@@ 2
Os 2
Ou@@ 2
OutputFile 2
P1 2
PAGE@@ 2
PARTITION_@@ 2
PAYLOAD 2
PCA 2
PCH 2
PD@@ 2
PE 2
PE@@ 2
PENDING_@@ 2
PI@@ 2
PIC 2
PIC@@ 2
PING 2
PIN_@@ 2
PI_@@ 2
PK@@ 2
PLAN@@ 2
PLAY@@ 2
PLUS 2
POINTER 2
POLL_@@ 2
PORT_@@ 2
POSITIVE_INFINITY 2
POST@@ 2
PREVI@@ 2
PRIORITY 2
PRIORITY_@@ 2
PROCE@@ 2
PRODUC@@ 2
PROGRESS 2
PROP 2
PROPERTIES_@@ 2
PROTOCOL 2
PTR_@@ 2
PU@@ 2
PUBLI@@ 2
PV@@ 2
Pad 2
PageSize 2
Paged@@ 2
Pair@@ 2
Pane@@ 2
Paper@@ 2
ParameterValue 2
Parsed 2
ParserConfigurationException 2
ParsingException 2
Partial 2
Pat@@ 2
Payment 2
Pen@@ 2
Perform 2
Perio@@ 2
Period@@ 2
Permissions@@ 2
Pho@@ 2
Ping 2
Pixel@@ 2
PixelFormat 2
Placement@@ 2
PlainText 2
Poly@@ 2
Pos@@ 2
PosX 2
Possi@@ 2
PostProcessor 2
Postgre@@ 2
Power@@ 2
Prec@@ 2
Prediction 2
Preferences@@ 2
Preferred@@ 2
Prefixed@@ 2
Prepar@@ 2
Presence@@ 2
Presentation 2
Price@@ 2
Primitive 2
PrimitiveType 2
Privileged@@ 2
Probability 2
Probe@@ 2
Problems 2
Processed@@ 2
Prod 2
ProgressBar@@ 2
ProgressMonitor 2
Propag@@ 2
PropertyChangeEvent 2
PropertyDescriptor 2
Protected 2
Proto@@ 2
ProtocolVersion 2
Protocols 2
Prox@@ 2
PsiManager 2
Pu@@ 2
QUALITY_@@ 2
QUESTI@@ 2
Quote@@ 2
RANDOM 2
RANGE_@@ 2
RA_@@ 2
RE 2
REAS@@ 2
REGEX@@ 2
RELEASE_@@ 2
REMOVED 2
REPLACE 2
REPORT 2
RES@@ 2
RESPONSE_@@ 2
RESULT_@@ 2
RETURN_@@ 2
REVERSE_@@ 2
ROLL@@ 2
ROUT@@ 2
RSA 2
RSA@@ 2
Ra@@ 2
Rad 2
Radi@@ 2
Raised 2
Reads 2
Recei@@ 2
Receiver@@ 2
Reconnec@@ 2
Recording@@ 2
Recursive 2
Recursive@@ 2
Red 2
Reduce 2
Redund@@ 2
ReferenceExpression 2
ReferenceType 2
Registry@@ 2
Relev@@ 2
Remaining 2
Remote 2
Removing 2
Rendered@@ 2
Rendering@@ 2
Repeat@@ 2
Replic@@ 2
RequestFactory 2
Resize@@ 2
ResourceBundle 2
ResourceId 2
ResourceResponse 2
Resume 2
Retry 2
Rigid@@ 2
Rollback 2
Rotate 2
Rotation 2
Ruby@@ 2
S1 2
SAML 2
SAS@@ 2
SCAP@@ 2
SCSI 2
SC_@@ 2
SDK@@ 2
SEC@@ 2
SEC_@@ 2
SELEC@@ 2
SELECT_@@ 2
SEN@@ 2
SERIALIZ@@ 2
SERVICE 2
SETTINGS_@@ 2
SHORT_@@ 2
SID 2
SINGLE_@@ 2
SIS 2
SKIP_@@ 2
SOURCES 2
SPAN_@@ 2
SPE@@ 2
SQLite@@ 2
SSL 2
STAND_@@ 2
STAR 2
STAR@@ 2
STATIC 2
STATIC_@@ 2
STATUS_@@ 2
STORAGE 2
STR 2
STREAM 2
STS 2
STYLE_@@ 2
SUM 2
SUMMAR@@ 2
SUPPORT_@@ 2
SUR@@ 2
SYN@@ 2
S_PER_@@ 2
Saf@@ 2
Safe 2
Sal@@ 2
Sandbox@@ 2
ScaleX 2
ScaleY 2
Scaled@@ 2
Scaling 2
Scaling@@ 2
Scenario 2
Scheduled@@ 2
ScriptEngine@@ 2
Scripts 2
ScrollBar@@ 2
SearchCriteria 2
Searches 2
SecretKey 2
SecurityContext@@ 2
Seeds 2
Sel 2
Selector 2
Semantic@@ 2
SendTo@@ 2
Sensitive@@ 2
Seq 2
ServerError 2
ServiceFactory 2
ServiceImpl 2
ServiceLocator 2
SessionId 2
SetData 2
Setup 2
ShaderProgram 2
Shadow 2
Shapes 2
Shard 2
Shor@@ 2
Shortcut 2
ShouldNot@@ 2
Shutdown 2
Sibling 2
Side 2
Signatures 2
Simulated@@ 2
Since@@ 2
Singleton 2
Sizes 2
Skin 2
Slave 2
Slice 2
Sling@@ 2
Smoo@@ 2
Soap@@ 2
Sorry 2
SourceLocation 2
Spark@@ 2
Spectr@@ 2
Spin@@ 2
Spinner 2
Squared 2
StackTraceElement 2
Stamp@@ 2
StartTag 2
Startup 2
Startup@@ 2
StatusBar@@ 2
StatusType 2
Stopping 2
Stopwatch 2
StorageType 2
StreamOutput 2
Streaming 2
Streams 2
Strength 2
StringList 2
StringMap 2
StringType 2
String_@@ 2
Stroke 2
Structure@@ 2
Substitutor 2
Successful@@ 2
Successfully 2
Suggestion@@ 2
Summary@@ 2
Sur@@ 2
SurfaceView 2
Sy@@ 2
Symbols@@ 2
Synchronization@@ 2
Syntax 2
SystemClock 2
SystemId 2
T0 2
T1 2
TATION 2
TEMPLA@@ 2
THIR@@ 2
THREE 2
TING_@@ 2
TIT@@ 2
TL@@ 2
TLS 2
TOP 2
TProtocol@@ 2
TRANSI@@ 2
TRANSLATE_@@ 2
TREE 2
TV@@ 2
TWO_@@ 2
TableView 2
Taken 2
Tar@@ 2
TaskAttempt@@ 2
Tasks@@ 2
Templates 2
Temporary@@ 2
Terminate 2
Terminate@@ 2
Terms 2
TestBase 2
TestClass 2
TestConfiguration 2
TestData@@ 2
TestRule 2
TextBox 2
TextColor 2
That 2
Theme_@@ 2
Three@@ 2
Through 2
ThrowException 2
Ticks 2
TileEntity@@ 2
TimeOut 2
Timed 2
Titled@@ 2
ToString@@ 2
Tokenizer@@ 2
Tokens 2
Toolbar 2
Tor@@ 2
Touch 2
Tracer 2
Tracking@@ 2
Training@@ 2
Transforms 2
Transport 2
Transport@@ 2
TreeModel 2
Triple@@ 2
Tuples 2
TypeDefinition 2
TypeName 2
Typed 2
UCE_@@ 2
UG@@ 2
UL 2
UNEXPEC@@ 2
UNICODE 2
UNSET 2
UP@@ 2
URI@@ 2
URI_@@ 2
UR_@@ 2
UST@@ 2
Uid@@ 2
Unary@@ 2
Unavailable 2
Unicode@@ 2
UnitTest 2
Unless 2
Unregister@@ 2
UpperBound 2
UserRole 2
Username@@ 2
Utili@@ 2
VBox@@ 2
VC@@ 2
VE@@ 2
VEN@@ 2
VERTICAL 2
VInt 2
ValidationError 2
ValueMetaInterface 2
ValuePair 2
Van@@ 2
Vec3d 2
Vector3d 2
Vehicle 2
Ven@@ 2
Vendor 2
Verb@@ 2
Versioned@@ 2
Via@@ 2
View_@@ 2
Viewport 2
Voice@@ 2
Votes 2
WAR@@ 2
WEB 2
WEEK 2
WHITE@@ 2
WIDTH_@@ 2
WINDOW 2
WM@@ 2
WN@@ 2
WORK@@ 2
WRI@@ 2
WRITE@@ 2
W_@@ 2
Wa@@ 2
WaitTime 2
Watch 2
Water@@ 2
We 2
WeakReference 2
Wheel@@ 2
Widgets 2
Wildcard 2
Wizard@@ 2
WorkflowExecution@@ 2
Works 2
WriteTo@@ 2
Wy@@ 2
X0 2
X509Certificate 2
XMLString 2
XML_@@ 2
XMPP@@ 2
XPath 2
X_AXIS 2
Y_AXIS 2
Z3@@ 2
ZE_@@ 2
ZONE 2
Za 2
Zoom 2
Zoom@@ 2
Zy@@ 2
[0-9 2
_SCOP@@ 2
_SE@@ 2
_SEARCH_@@ 2
_SELE@@ 2
_SELECTED 2
_SET 2
_SETTINGS 2
_SHA@@ 2
_SHAR@@ 2
_SUCCE@@ 2
_SUFFIX 2
_active 2
_char@@ 2
_file 2
_filename 2
_i 2
_instance 2
_manager 2
_max@@ 2
_n@@ 2
_out@@ 2
_page_@@ 2
_screen 2
_t 2
_type 2
_w@@ 2
a3 2
a6 2
aa@@ 2
ab 2
ableTo@@ 2
abort 2
absent 2
accountId 2
accounts 2
aclass 2
activ@@ 2
activi@@ 2
actual_@@ 2
actuate 2
addSub@@ 2
addValue 2
addi@@ 2
adding 2
adjust@@ 2
advanced@@ 2
ag 2
ago@@ 2
agram 2
ah 2
air@@ 2
airs 2
aker@@ 2
alert@@ 2
ality 2
alive 2
alize@@ 2
allOf 2
aller 2
alog 2
always 2
amount@@ 2
analyzer 2
ander 2
ane@@ 2
ani@@ 2
anne@@ 2
annotated 2
anonym@@ 2
ans 2
aper@@ 2
appendValue 2
applicationId 2
applicationName 2
arding 2
arg_@@ 2
aring 2
ark 2
arrayValue 2
art@@ 2
as_string 2
ase 2
assertIs@@ 2
assertMockEndpointsSatisfied 2
assertNot@@ 2
assertNotSame 2
assoc 2
association 2
assume@@ 2
asure 2
asynchronous 2
ateTo@@ 2
atest 2
ath 2
ationContext 2
atomic 2
ator_@@ 2
audi@@ 2
aurant 2
auth_@@ 2
authenticate 2
authorized 2
authorized@@ 2
ava 2
ave@@ 2
avel@@ 2
aven 2
avo@@ 2
avoid 2
axis 2
axis@@ 2
backed 2
band 2
barcode 2
baseOffset 2
base_url 2
basedir 2
beat@@ 2
because 2
bed 2
bed@@ 2
below 2
ber@@ 2
bered 2
beta 2
bg 2
bill@@ 2
binary 2
binary@@ 2
black 2
blah 2
blobs 2
bloo@@ 2
blur@@ 2
body@@ 2
boost 2
bour@@ 2
bran@@ 2
brea@@ 2
bridge 2
browser 2
bucket 2
buff@@ 2
builds 2
bus 2
buy 2
byName 2
calc 2
calculator 2
calling 2
cally 2
cancell@@ 2
cancellation 2
canvas 2
capitalize 2
caption 2
card@@ 2
card_@@ 2
cart 2
cas 2
ceil 2
cel_@@ 2
cent 2
centerX 2
centerY 2
ces@@ 2
cg 2
chael 2
chat 2
checkBox 2
check_@@ 2
chedu@@ 2
choices 2
chosen@@ 2
chromium 2
circ@@ 2
cities 2
classe@@ 2
clause 2
cle 2
clear_@@ 2
clinical 2
clock 2
cloud 2
clusterService 2
collator 2
colon@@ 2
color_@@ 2
columnNames 2
company 2
comparison 2
complex 2
composer 2
compress_@@ 2
concurrent@@ 2
configurations 2
confirm 2
confirmation 2
conflicts 2
conformance 2
connecting 2
consist@@ 2
constants 2
construct@@ 2
consu@@ 2
contentLength 2
continuous 2
control@@ 2
conv 2
conv@@ 2
conver@@ 2
convertTo 2
cookie@@ 2
copied@@ 2
copyTo 2
cos 2
cost@@ 2
counter@@ 2
covered 2
cp 2
cpu 2
createEmpty@@ 2
createInstance 2
createQuery 2
create_@@ 2
criter@@ 2
css 2
ctr@@ 2
ctrl 2
ctxt 2
cum@@ 2
curren@@ 2
currentPage 2
currently 2
cx@@ 2
d3 2
das@@ 2
dataFormat 2
dataflow 2
datanode 2
datasour@@ 2
datasource 2
dateTime 2
decl@@ 2
decrypt 2
deep@@ 2
defin@@ 2
delay@@ 2
deletion 2
delivered 2
deltaTime 2
den 2
dependencies 2
deployment 2
derived@@ 2
description@@ 2
det 2
detailed 2
detected 2
dev@@ 2
dex 2
df2 2
dh@@ 2
dialect 2
dialogs 2
dig@@ 2
dim@@ 2
disabling 2
discard@@ 2
discover@@ 2
disks 2
dispatcher 2
dispose@@ 2
distributed@@ 2
dou@@ 2
dra@@ 2
drawString 2
drawText 2
dri@@ 2
druid 2
dummy 2
duplicate@@ 2
dure@@ 2
ec 2
ecu@@ 2
edges 2
eds 2
elapsed@@ 2
elasticsearch 2
ely 2
ely@@ 2
email_@@ 2
emit 2
emitter 2
emul@@ 2
enabled_@@ 2
encrypt@@ 2
endPoint 2
ending 2
ength 2
enh@@ 2
enqueue@@ 2
enta 2
entation 2
ente 2
entities 2
entr@@ 2
equal@@ 2
era@@ 2
eri@@ 2
eric@@ 2
ering 2
ero 2
error_@@ 2
esc@@ 2
est 2
estimate@@ 2
etc 2
eter@@ 2
eventHandler 2
ex_@@ 2
example@@ 2
exceeded 2
excludes 2
executing 2
expectedMessageCount 2
expectedResult 2
expectedValue 2
expire@@ 2
explain 2
extended 2
extended@@ 2
extensionRegistry 2
extern@@ 2
f1 2
f1@@ 2
fR@@ 2
fac 2
facet@@ 2
fact@@ 2
faction@@ 2
families 2
fatal 2
feature_@@ 2
feren@@ 2
ff@@ 2
ffff@@ 2
fh 2
fhir 2
filtered 2
fit 2
fixture@@ 2
flate 2
flatten 2
flex 2
flows 2
focus 2
focus@@ 2
followers 2
following 2
fontSize 2
forced 2
formatters 2
forms 2
fpath 2
friends 2
fx 2
game_@@ 2
gap 2
gc@@ 2
ged 2
ged@@ 2
gent@@ 2
geometry 2
getActivity@@ 2
getBoolean@@ 2
getBuffer 2
getBuild@@ 2
getCategory 2
getCol@@ 2
getColor@@ 2
getCommand 2
getConnection@@ 2
getContaining@@ 2
getContentPane 2
getDebug@@ 2
getEffective@@ 2
getElementById 2
getErrors 2
getFeatures 2
getHandle 2
getI@@ 2
getInput 2
getInstrum@@ 2
getJava@@ 2
getLanguage 2
getLink@@ 2
getLocale 2
getLocation@@ 2
getMaximum@@ 2
getModel@@ 2
getModule 2
getNodeValue 2
getOperation@@ 2
getPage@@ 2
getParameterTypes 2
getPath@@ 2
getPlayer 2
getPlayer@@ 2
getPort@@ 2
getPosition@@ 2
getPrefix 2
getQualifier 2
getReal@@ 2
getRoute@@ 2
getRows 2
getSelection@@ 2
getSingle@@ 2
getStatic@@ 2
getTab@@ 2
getTag 2
getTimeZone 2
getToken@@ 2
getTotal 2
getU@@ 2
getUnit@@ 2
getVar@@ 2
getWeb@@ 2
getZ 2
get_@@ 2
gg 2
ght@@ 2
glGet@@ 2
gov 2
gp 2
grade 2
gram@@ 2
grams 2
gran@@ 2
granted 2
greater 2
green 2
green@@ 2
gs@@ 2
gui@@ 2
guild@@ 2
had 2
happen 2
hardware@@ 2
health@@ 2
healthy 2
here 2
heur@@ 2
hide@@ 2
hints 2
hk@@ 2
hold@@ 2
hole 2
hook 2
hostName 2
how 2
hs 2
httpClient 2
hu@@ 2
hy@@ 2
ializ@@ 2
iao@@ 2
ice@@ 2
ici@@ 2
ick@@ 2
ics 2
idea 2
ied@@ 2
ieve@@ 2
ight 2
ight@@ 2
ign 2
img_@@ 2
implement@@ 2
implementing 2
implicit 2
inOrder 2
in_@@ 2
ina 2
incompatible 2
increment@@ 2
indexing 2
indic@@ 2
indicated 2
individual 2
ine 2
inf 2
ingContext 2
ingStrategy 2
inject 2
inject@@ 2
injected 2
inside 2
inspector 2
inst@@ 2
installation 2
instanceOf 2
instantiate 2
instrumentation 2
intellij 2
interface@@ 2
iny@@ 2
ioe 2
ipped 2
isDebug@@ 2
isFinished 2
isFirst@@ 2
isHidden 2
isLocal@@ 2
isUser@@ 2
isn 2
isolation 2
issue@@ 2
itch@@ 2
ited 2
iterable 2
iterate 2
izers 2
java_@@ 2
javascript 2
jax@@ 2
je@@ 2
jetbrains 2
jj@@ 2
jpa@@ 2
junction 2
junction@@ 2
just 2
key_@@ 2
king@@ 2
kins@@ 2
kl@@ 2
lar 2
late 2
lb@@ 2
leader@@ 2
least 2
lec@@ 2
legacy 2
len1 2
lf 2
library 2
library@@ 2
lic@@ 2
lifecycle 2
lify 2
limited 2
line2 2
line_@@ 2
lines@@ 2
linux 2
listener@@ 2
little 2
live 2
lize 2
ln@@ 2
lo 2
lo_@@ 2
locate@@ 2
located 2
logical 2
login_@@ 2
logs 2
low@@ 2
lst@@ 2
lux@@ 2
lv@@ 2
ly_@@ 2
mHandler 2
mPaint 2
mSearch@@ 2
mValue 2
m_graph 2
m_index 2
m_re@@ 2
mal 2
malformed 2
man@@ 2
manage 2
manually 2
many 2
mapInfo 2
mapreduce 2
market 2
marshal 2
maxLength 2
maxNum@@ 2
maximum 2
mbo@@ 2
mbre 2
mbs 2
measure@@ 2
memoized@@ 2
messageId 2
message_@@ 2
milli@@ 2
millis 2
minValue 2
minimum@@ 2
minus@@ 2
mip@@ 2
mir@@ 2
modes 2
monoton@@ 2
mor@@ 2
morph@@ 2
mouse 2
mouseEvent 2
moveTo 2
mse 2
msec 2
mul 2
multiply 2
mur@@ 2
must@@ 2
mut@@ 2
mutable 2
mutate 2
n1@@ 2
navigate 2
nbsp 2
nec@@ 2
ned 2
needs 2
neg 2
neg@@ 2
negated 2
neighbours 2
nested 2
netty 2
newArray 2
newHeight 2
newIndex 2
newWidth 2
ng 2
nics 2
ning 2
nm 2
nn 2
noti@@ 2
notification 2
notification@@ 2
notify 2
nul@@ 2
numBytes 2
nv@@ 2
oak 2
obtaining 2
od 2
office 2
oldName 2
onal 2
ont 2
ont@@ 2
onto 2
oot 2
op1 2
op2 2
openConnection 2
operator@@ 2
optional 2
orderBy 2
ordered 2
ore 2
ori 2
orient 2
orizont@@ 2
ough 2
outFile 2
outer 2
ov 2
ov@@ 2
owner@@ 2
p2@@ 2
p3 2
p4 2
p5 2
pType@@ 2
pad@@ 2
pageSize 2
paper@@ 2
para 2
parm 2
parseFloat 2
parsing 2
partial 2
partial@@ 2
particle 2
pat 2
path1 2
path2 2
patient@@ 2
ped@@ 2
pen 2
photo 2
php 2
pic 2
pid@@ 2
pixels 2
plain@@ 2
platforms 2
polic@@ 2
pool 2
populate 2
port1 2
portal 2
positive_@@ 2
potential@@ 2
power 2
pre 2
preference@@ 2
press@@ 2
pretty@@ 2
proce@@ 2
producer@@ 2
properly 2
props@@ 2
prototype 2
provision@@ 2
prs 2
pt 2
pt@@ 2
ptr@@ 2
pun@@ 2
put_@@ 2
pv@@ 2
ql 2
qn 2
qr@@ 2
que@@ 2
queryString 2
question 2
quick@@ 2
quote@@ 2
r_@@ 2
ra 2
randomUUID 2
ras@@ 2
ratio 2
rdd 2
readBytes 2
read_@@ 2
ready 2
real 2
recomm@@ 2
recorder 2
records 2
recovered 2
recur@@ 2
ree 2
reflec@@ 2
rejec@@ 2
related@@ 2
relation 2
rele@@ 2
remaining@@ 2
remap 2
rep@@ 2
resh@@ 2
reshape 2
resolution 2
responseHeaders 2
retur@@ 2
returnType 2
revalidate 2
revision 2
ri 2
ribute@@ 2
ring 2
rip@@ 2
riteria 2
rng 2
road 2
rollback@@ 2
rootNode 2
router@@ 2
routing 2
rpm 2
rt@@ 2
runCommand 2
run_@@ 2
sArray 2
sManager 2
sString 2
sample_@@ 2
sanitize 2
sat 2
satisfied 2
saved@@ 2
scal@@ 2
scala 2
scaling@@ 2
scape@@ 2
scenario 2
scheduled@@ 2
secure@@ 2
security 2
sel@@ 2
selectionChanged 2
semantic@@ 2
sen@@ 2
sensitive@@ 2
serialVersionUID 2
serializer@@ 2
served@@ 2
serverSocket 2
servlet@@ 2
setActive 2
setAttributes 2
setB@@ 2
setBoolean 2
setColor@@ 2
setConfig 2
setContext@@ 2
setCount 2
setCustom@@ 2
setDate@@ 2
setError 2
setFile@@ 2
setFlag 2
setFormat 2
setInput 2
setInput@@ 2
setLine@@ 2
setLocal@@ 2
setLong 2
setMinimumSize 2
setMode 2
setNode@@ 2
setOffset 2
setRotation 2
setShow@@ 2
setSingle@@ 2
setSize 2
setStyle 2
setTag 2
sf 2
share_@@ 2
shift_@@ 2
ship_@@ 2
sho@@ 2
showMessage 2
shown 2
shuffle 2
si 2
signed 2
signum 2
silent 2
simple_@@ 2
simply 2
simul@@ 2
simulate 2
since@@ 2
sion_@@ 2
site@@ 2
sive_@@ 2
sizeOf@@ 2
skipping 2
slash@@ 2
small@@ 2
sname 2
solve 2
sop@@ 2
sor@@ 2
sou@@ 2
sour@@ 2
sources 2
spark@@ 2
spec 2
special@@ 2
specify 2
spellInfo 2
spelling 2
spring 2
sq@@ 2
sqlite 2
square 2
ss_@@ 2
sses 2
stackTrace 2
startArray 2
startPos 2
started 2
starts 2
startup 2
statements 2
statistics 2
stats@@ 2
stered 2
stest 2
stick@@ 2
still 2
stone_@@ 2
stored@@ 2
strftime 2
strict@@ 2
stroke 2
strs 2
struct@@ 2
studio 2
styleable 2
subList 2
subType 2
subtract 2
successful@@ 2
successfully 2
such 2
suites 2
sun 2
sun@@ 2
supply 2
sur@@ 2
surname 2
suspen@@ 2
sv@@ 2
sw@@ 2
sx 2
sy 2
synchronized@@ 2
sys@@ 2
sz@@ 2
t6 2
tag_@@ 2
talk 2
tb 2
tech 2
tel 2
ten@@ 2
terminate@@ 2
terms 2
test2 2
testAdd@@ 2
testData 2
testName 2
they 2
thisObject 2
tible@@ 2
tide 2
ties_@@ 2
timeUnit 2
timeout@@ 2
ting_@@ 2
tle 2
tmpdir 2
tn@@ 2
toUpper 2
topics 2
tr@@ 2
tra@@ 2
tran 2
translator@@ 2
transparent 2
ttle 2
ttle@@ 2
tu 2
tw@@ 2
u_@@ 2
uhn 2
ulary 2
ulo 2
ults 2
umin@@ 2
unc 2
unch@@ 2
undo 2
unit@@ 2
unknown@@ 2
unload 2
unmarsh@@ 2
unzip 2
updat@@ 2
updater 2
uple 2
upper@@ 2
urn 2
userService 2
user_name 2
using@@ 2
v2 2
variant@@ 2
variation 2
vars 2
vector 2
ven 2
vendor 2
vid@@ 2
video_@@ 2
viewport 2
virtual@@ 2
vision 2
vision@@ 2
visor@@ 2
visual 2
vp@@ 2
wa@@ 2
walker 2
watcher 2
wav 2
whatever 2
where@@ 2
white 2
widget 2
win@@ 2
windows@@ 2
wm 2
wn@@ 2
word@@ 2
workbench@@ 2
working 2
writeAttribute 2
write_@@ 2
ws 2
wtf 2
yam@@ 2
yaml@@ 2
yarn 2
ycl@@ 2
ye@@ 2
ython 2
yy@@ 2
z_@@ 2
ze@@ 2
zone 2
zstack 2
Ç@@ 2
Ì@@ 2
Ó@@ 2
á@@ 2
ão 2
ção 2
ó@@ 2
š 2
š@@ 2
— 2
• 2
┗ 2
┣ 2
が@@ 2
す 2
な@@ 2
サ@@ 2
タ@@ 2
テ@@ 2
バ@@ 2
业@@ 2
个 2
主@@ 2
了 2
仅@@ 2
任@@ 2
企@@ 2
你@@ 2
内@@ 2
再@@ 2
到@@ 2
加@@ 2
务@@ 2
华@@ 2
可@@ 2
国 2
在@@ 2
存@@ 2
宝@@ 2
容 2
幻@@ 2
戏@@ 2
打@@ 2
择@@ 2
新@@ 2
更@@ 2
泉@@ 2
游@@ 2
滚@@ 2
版 2
石@@ 2
能@@ 2
行@@ 2
读@@ 2
调@@ 2
豪@@ 2
费@@ 2
赠 2
超@@ 2
选@@ 2
重@@ 2
！ 2
"10@@ 1
"123456789@@ 1
"200@@ 1
"3@@ 1
"4@@ 1
"6" 1
"6@@ 1
"7" 1
"7@@ 1
"8" 1
"8@@ 1
%08x 1
%1 1
%2 1
%= 1
%@@ 1
)@@ 1
0.00 1
0.000000@@ 1
0.001 1
0.001f 1
0.07@@ 1
0.10 1
0.1f 1
0.2 1
0.25 1
0.39@@ 1
0.3f 1
0.4 1
0.5f 1
0.75 1
0.75@@ 1
00000000000000000000000000000000@@ 1
001 1
01/@@ 1
01_@@ 1
01f 1
02" 1
03" 1
03/@@ 1
032@@ 1
034@@ 1
04" 1
0400@@ 1
05" 1
05-@@ 1
064@@ 1
07" 1
07/@@ 1
09/@@ 1
0B 1
0B@@ 1
0C@@ 1
0b@@ 1
0f 1
0x007@@ 1
0x07@@ 1
0x0C 1
0x11 1
0x12 1
0x19@@ 1
0x1E 1
0x20 1
0x30 1
0x39 1
0x40 1
0x@@ 1
0xC0 1
0xE0 1
0xF0 1
0xFFFF@@ 1
0xf@@ 1
0xffffffff 1
1-@@ 1
1.5@@ 1
1.9@@ 1
10" 1
10.@@ 1
1000000 1
1000L 1
11" 1
113 1
115@@ 1
117 1
12" 1
12-@@ 1
121 1
1234 1
12345 1
123@@ 1
126 1
127.0.0.1 1
129 1
131 1
136 1
137@@ 1
139@@ 1
140 1
15" 1
15.@@ 1
157 1
167 1
169@@ 1
171 1
172 1
175 1
190 1
196 1
1D 1
1D@@ 1
1E@@ 1
1_0 1
1c@@ 1
1e@@ 1
1s 1
1st 1
2,@@ 1
2.5 1
2009 1
20s 1
219@@ 1
21@@ 1
224@@ 1
225@@ 1
226 1
23" 1
23.@@ 1
233 1
239 1
241 1
244 1
246 1
25/@@ 1
252 1
253 1
254 1
264@@ 1
280 1
299 1
2:@@ 1
2A 1
2_1 1
2a@@ 1
2b@@ 1
2c@@ 1
2d 1
3-201@@ 1
3/@@ 1
301 1
304 1
311@@ 1
312 1
312@@ 1
315@@ 1
31@@ 1
330 1
340 1
375 1
39.@@ 1
3F 1
3U 1
3a@@ 1
3f 1
4' 1
4000 1
401@@ 1
406@@ 1
409@@ 1
410@@ 1
411@@ 1
416@@ 1
420@@ 1
422@@ 1
4444 1
450 1
480 1
486@@ 1
4J@@ 1
4_@@ 1
501 1
509@@ 1
515@@ 1
52.@@ 1
525@@ 1
52@@ 1
555 1
56 1
567@@ 1
5d@@ 1
6.0 1
6/@@ 1
6000 1
608@@ 1
611@@ 1
616@@ 1
626@@ 1
62@@ 1
63 1
636@@ 1
637@@ 1
63@@ 1
640 1
675 1
688@@ 1
6c@@ 1
6d@@ 1
6e 1
7,@@ 1
7-@@ 1
7.0 1
7.@@ 1
700@@ 1
709@@ 1
71 1
718@@ 1
72 1
77 1
78 1
787@@ 1
800 1
800@@ 1
81 1
8192 1
81@@ 1
855@@ 1
86 1
864@@ 1
87 1
8888 1
8f 1
9/@@ 1
900 1
909@@ 1
92@@ 1
94 1
949@@ 1
95@@ 1
99" 1
9_@@ 1
9a@@ 1
9e@@ 1
9f@@ 1
A1 1
ABC 1
ABC@@ 1
ABLE_@@ 1
ABSTR@@ 1
ACCEPT 1
ACCEPTED 1
ACCOUNT 1
ACE 1
ACKNOWLEDGE 1
ACK_@@ 1
ACTION 1
ACTION@@ 1
ADD 1
ADDR 1
AE@@ 1
AF@@ 1
AGE 1
AH@@ 1
AI@@ 1
ALGORITH@@ 1
ALIAS_@@ 1
ALLOWED 1
ALPHA 1
ALTER@@ 1
AM 1
AMOUNT 1
ANDROID_@@ 1
ANG@@ 1
ANIMA@@ 1
ANNO@@ 1
ANY@@ 1
AO 1
AO@@ 1
APPLE 1
ARGB 1
ARI@@ 1
ARM@@ 1
ARY_@@ 1
ASCII@@ 1
AST_@@ 1
ATED 1
ATION@@ 1
ATOR@@ 1
ATTRIBUTE_@@ 1
ATUR@@ 1
ATURE 1
AUDIO@@ 1
AUDIO_@@ 1
AUTHORIZ@@ 1
AVAILA@@ 1
AVER@@ 1
AXIS 1
Abbre@@ 1
Ability 1
Abs@@ 1
Acceptable 1
Accepted@@ 1
Acces@@ 1
Achievement 1
Acknowled@@ 1
Acl@@ 1
ActionHandler 1
Activated 1
Actual@@ 1
Adap@@ 1
Advisor 1
Africa 1
Aggregation 1
Aggregation@@ 1
Aggregator 1
AggregatorFactory 1
Air@@ 1
Alerts 1
Alg@@ 1
Algorith@@ 1
Ali@@ 1
Aliases 1
Align 1
Allocate@@ 1
Allocated 1
Allow 1
Already 1
AlreadyExistsException 1
Also 1
Alt 1
Altern@@ 1
Alternate@@ 1
Am@@ 1
AnAction 1
Ance@@ 1
Animation 1
Annot@@ 1
Answer@@ 1
Anti@@ 1
Antialiasing 1
ApiException 1
Applied 1
Are 1
Area@@ 1
Arg@@ 1
ArrayType 1
Artist 1
AsText 1
Ask 1
Assembly 1
Assertion 1
Assets 1
Assign 1
Assignments 1
Ast@@ 1
Attemp@@ 1
Attempting 1
AttributeValue 1
Aud@@ 1
Aura 1
Australia 1
Authentic@@ 1
Authenticate 1
Authority 1
Automati@@ 1
Avail@@ 1
Availability 1
Avg 1
Avro@@ 1
Axio@@ 1
B1 1
BA 1
BAD@@ 1
BAR 1
BAR@@ 1
BATCH@@ 1
BATCH_@@ 1
BC 1
BED@@ 1
BEG@@ 1
BEL@@ 1
BELOW 1
BER@@ 1
BETA 1
BF@@ 1
BILITY 1
BILITY_@@ 1
BINARY_@@ 1
BIND 1
BIT 1
BITS 1
BLA@@ 1
BLAN@@ 1
BLOC@@ 1
BLOCK_SIZE 1
BLOO@@ 1
BON@@ 1
BOO@@ 1
BOOK 1
BOOLEAN 1
BOTH_@@ 1
BOTTOM 1
BPM@@ 1
BS@@ 1
BUFF@@ 1
BUFSIZE 1
BUF_@@ 1
BUNDLE 1
BUTTON 1
BYTE@@ 1
Balance@@ 1
Bank@@ 1
Barcode@@ 1
BaseCommand 1
BaseString 1
Battle@@ 1
BeanUtils 1
Beginning 1
Behaviour 1
Between@@ 1
Bias@@ 1
Birth@@ 1
Blend@@ 1
Blo@@ 1
BlockPos 1
BlockSize 1
Blue@@ 1
Blur 1
Bob 1
Bookmark 1
Bookmark@@ 1
Boost 1
Bootstrap@@ 1
Bor@@ 1
BorderFactory 1
Bounding@@ 1
BoundingBox@@ 1
Bran@@ 1
Bro@@ 1
Broken 1
Browser@@ 1
BufferException 1
Buil@@ 1
BuildTarget@@ 1
BuilderFactory 1
Built 1
Built@@ 1
Bund@@ 1
Bundles 1
ByteOrder 1
C1 1
CAC@@ 1
CALL_@@ 1
CAN_@@ 1
CAPTURE_@@ 1
CASE 1
CASE_@@ 1
CAST 1
CDATA 1
CEL@@ 1
CEN@@ 1
CHA@@ 1
CHAN@@ 1
CHANGE 1
CHANNEL_@@ 1
CHAR@@ 1
CHAT_@@ 1
CHIL@@ 1
CHRON@@ 1
CH_@@ 1
CID@@ 1
CLAMP 1
CLASS@@ 1
CLIENT 1
CLOCK 1
CM 1
CMD_@@ 1
COLLECTION 1
COLOR@@ 1
COMMAND 1
COMMENT 1
COMP@@ 1
COMPAR@@ 1
COMPATI@@ 1
COMPRESSED_@@ 1
CON 1
CONDITION@@ 1
CONFI@@ 1
CONFLIC@@ 1
CONNE@@ 1
CONNECTION 1
CONNECT_@@ 1
CONSTANT_@@ 1
CONSTRA@@ 1
CONSTRUC@@ 1
CONTAIN@@ 1
CONTENT_@@ 1
CONTRIBU@@ 1
CONTROLL@@ 1
CONTROLLER 1
COUNTER 1
CP@@ 1
CQ@@ 1
CREATE@@ 1
CRY@@ 1
CSS 1
CSS_@@ 1
CTED 1
CURL 1
CUSTOM@@ 1
CX@@ 1
Ca@@ 1
CacheConfiguration 1
Calc@@ 1
CallbackInfo 1
Called@@ 1
Caller 1
Calling 1
Cam 1
CamelContext@@ 1
CanBe@@ 1
Candidates 1
Cannot@@ 1
Canonic@@ 1
Canvas 1
Capabilities 1
Caption@@ 1
Card 1
Caret 1
Cat 1
Cat@@ 1
Cert 1
CertificateException 1
Changing 1
CharArray 1
Charac@@ 1
Charsets 1
Checked 1
Checking 1
Chee@@ 1
ChildElement 1
Cho@@ 1
Choose 1
Chooser 1
Chronology 1
Chunked@@ 1
Circle 1
Classi@@ 1
Classifier 1
Classifier@@ 1
Classpath@@ 1
Cle@@ 1
ClientId 1
ClientState 1
Clock@@ 1
Clon@@ 1
Clu@@ 1
ClusterState 1
Clusters 1
Coder@@ 1
Coin@@ 1
Collapsed 1
Collision 1
Colored@@ 1
ColumnName 1
CommandError 1
CommandHandler 1
CommandLine@@ 1
Communication@@ 1
Compact@@ 1
Company@@ 1
Compat@@ 1
Compatible 1
CompilationUnit 1
Compose@@ 1
Composer 1
Compres@@ 1
Compress@@ 1
Compression 1
Compressor 1
Computer 1
ConcurrentHashMap 1
ConcurrentMap 1
ConfigException 1
Configur@@ 1
Conn@@ 1
ConnectionManager 1
Construc@@ 1
Constructors 1
Consult@@ 1
Consume 1
ContextImpl 1
Contexts 1
Contextual@@ 1
Contin@@ 1
Cores 1
Corner@@ 1
Correct 1
Counts 1
Creature 1
Cred@@ 1
Critical@@ 1
Cross 1
Crypt@@ 1
Cull@@ 1
CurrentThread 1
Currently 1
D1 1
DARY 1
DATE_FORMAT 1
DAY_OF_MONTH 1
DBException 1
DD@@ 1
DEAD@@ 1
DEC@@ 1
DED_@@ 1
DEFAULT_MAX_@@ 1
DEGRE@@ 1
DEL_@@ 1
DEPLOY@@ 1
DERS 1
DER_@@ 1
DES 1
DESTIN@@ 1
DEVELO@@ 1
DF 1
DFS_NAMENO@@ 1
DIC@@ 1
DIREC@@ 1
DIRECT 1
DIRS 1
DISABLE 1
DJ@@ 1
DM 1
DN@@ 1
DOMException 1
DONT_@@ 1
DOOR 1
DOS 1
DOT_@@ 1
DR 1
DR@@ 1
DRAG@@ 1
DRO@@ 1
DU@@ 1
DUN@@ 1
DY@@ 1
D_S@@ 1
DataArray 1
DataFormat 1
DataHandler 1
DataInputStream 1
DataInterface 1
DataOutputStream 1
DatabaseError 1
Datagram@@ 1
DateTimeFormat 1
Defa@@ 1
DefaultValue 1
Definitions 1
Deleting 1
Deli@@ 1
DeniedException 1
Der@@ 1
Descri@@ 1
Deserializer 1
Design@@ 1
Desktop@@ 1
Detect 1
Developer@@ 1
Dial@@ 1
Did@@ 1
Die 1
Difference 1
Difference@@ 1
Difficulty@@ 1
Digest 1
Dimen@@ 1
Direct 1
Directive 1
Dirty 1
Disp@@ 1
Dispatch 1
Dispose@@ 1
Dist 1
Divider 1
Docs@@ 1
DocumentType 1
Dolphin 1
Downloads 1
Dr@@ 1
Drawer 1
Drive 1
DriverManager 1
Drivers 1
Drop 1
Dum@@ 1
Duplic@@ 1
E2@@ 1
E4 1
E7@@ 1
EAR@@ 1
EAST 1
EDI@@ 1
EDIT 1
EDIT_@@ 1
EE@@ 1
EF@@ 1
EI@@ 1
ELF 1
ELL 1
EMPTY_ARRAY 1
EN 1
END@@ 1
ENE@@ 1
ENTI@@ 1
ENTRY 1
ENT_@@ 1
ENV 1
ENVI@@ 1
EQUALS 1
ERI@@ 1
ERR 1
ESCAPE 1
ESCAPE_@@ 1
EST_@@ 1
ET@@ 1
EX 1
EXCE@@ 1
EXCEPTION_@@ 1
EXECUTABLE 1
EXT 1
EXT@@ 1
EXTENDED_@@ 1
EXTENSION_@@ 1
EXTRAC@@ 1
EY@@ 1
Editable@@ 1
Effec@@ 1
Em@@ 1
Embedded@@ 1
Enc 1
Encoded@@ 1
Endian@@ 1
Ending 1
Enou@@ 1
EntityPlayer 1
Enumerate@@ 1
Episode@@ 1
Eq@@ 1
Err 1
ErrorDialog 1
Errors@@ 1
Estimate 1
EventFilter 1
EventInfo 1
EventManager 1
Evic@@ 1
Example@@ 1
Exceeded 1
Except 1
ExceptionHandler 1
Exclusive 1
Executors 1
Exif@@ 1
ExitCode 1
Exiting 1
Expander 1
Expiration@@ 1
Expired 1
Expiry@@ 1
Explanation 1
Expo@@ 1
Export 1
Expres@@ 1
Extended 1
Extraction@@ 1
Extractor@@ 1
F2 1
F5@@ 1
FACE@@ 1
FACE_@@ 1
FAIL@@ 1
FAILURE 1
FAIL_@@ 1
FAL@@ 1
FC 1
FER@@ 1
FFFFFFFF@@ 1
FFI@@ 1
FI 1
FIELD@@ 1
FILL 1
FILTER@@ 1
FIRE_@@ 1
FIX 1
FLA@@ 1
FLOAT_@@ 1
FLOW@@ 1
FOCUS 1
FOL@@ 1
FOREG@@ 1
FOR_@@ 1
FOUND_@@ 1
FRAME 1
FRAME@@ 1
FREQU@@ 1
FULL_@@ 1
FY 1
FY@@ 1
Fab@@ 1
Face@@ 1
Faction 1
False 1
Family 1
Fast 1
Features@@ 1
Feder@@ 1
FieldValue@@ 1
Fil@@ 1
FileHandler 1
FileManager 1
FileStatus 1
File_@@ 1
FillType 1
Filtering 1
Finger@@ 1
Fir@@ 1
Fix@@ 1
Flav@@ 1
FloatField 1
Fly@@ 1
Fo@@ 1
Focused@@ 1
FontMetrics 1
Force 1
Forced 1
Forge@@ 1
ForkJoin@@ 1
Forum 1
Forward 1
Fra@@ 1
Fragments 1
Frequency@@ 1
Front@@ 1
Fs@@ 1
Fully 1
Fully@@ 1
Funcs 1
Functions@@ 1
Fur@@ 1
Fx@@ 1
GB 1
GENERA@@ 1
GENERATE_@@ 1
GEOME@@ 1
GES 1
GH@@ 1
GIF@@ 1
GIT_@@ 1
GL10 1
GLOBAL 1
GL_TEXTURE_2D 1
GO 1
GPS_@@ 1
GRAM 1
GRAVI@@ 1
GRAY 1
GREEN 1
GRID 1
GRID_@@ 1
GROUN@@ 1
GROUND 1
GS@@ 1
GWT 1
Ga@@ 1
Gauge@@ 1
Gdx@@ 1
GeneratedValue 1
Generation@@ 1
GetClient@@ 1
GetField@@ 1
GetInstance 1
GetNum@@ 1
GetObject@@ 1
Get_@@ 1
Gf@@ 1
Gil@@ 1
GitHub 1
GitHub@@ 1
Github 1
Give@@ 1
Glu@@ 1
Goal 1
Gpu 1
Gradient 1
Grant 1
Grap@@ 1
Gravity@@ 1
GregorianCalendar 1
Ground 1
Guar@@ 1
Guid@@ 1
Gw@@ 1
HA 1
HAND@@ 1
HAS 1
HC@@ 1
HEAD 1
HEAL@@ 1
HIDE_@@ 1
HIGH@@ 1
HOOK 1
HOSTNAME 1
HS 1
HS@@ 1
HT 1
HTM@@ 1
HTML_@@ 1
HTTPRequest 1
HW@@ 1
Hadoo@@ 1
Half@@ 1
Hang@@ 1
Happ@@ 1
Has 1
Hashtable 1
Heading 1
Heartbeat 1
Hex 1
Hg@@ 1
Hi 1
Hibernate 1
Hierarch@@ 1
High 1
Highe@@ 1
Hive@@ 1
Holder@@ 1
Horizontal 1
Hours 1
How 1
HttpServer 1
Human@@ 1
Hun@@ 1
I18n@@ 1
I2@@ 1
IBM 1
IEC@@ 1
ILLEGAL_@@ 1
IM 1
IM@@ 1
IMP@@ 1
IMPLICIT_@@ 1
IMPOR@@ 1
INCLUDE 1
INCLUDE_@@ 1
INFINITY 1
INFO@@ 1
INGS_@@ 1
INIT 1
INLINE 1
INSENSI@@ 1
INTEGR@@ 1
INTERFACE 1
INTERNAL_@@ 1
INVALID 1
INVEN@@ 1
INVOKE@@ 1
IPAddress@@ 1
IPT_@@ 1
IP_@@ 1
IPv4 1
IR_@@ 1
ITER@@ 1
ITS 1
ITY 1
IT_@@ 1
IW@@ 1
IX@@ 1
IZ@@ 1
Idx@@ 1
Ig@@ 1
Image2D 1
Img@@ 1
Immedi@@ 1
Implemented 1
Implicit 1
Impor@@ 1
Important 1
Importer@@ 1
Imports 1
InRange 1
InScope 1
Inactive@@ 1
Incompatible@@ 1
Increment@@ 1
Ind@@ 1
InfoMap 1
Inherit@@ 1
Inherited@@ 1
Initi@@ 1
Initial 1
Initialise 1
Initializing 1
Injected@@ 1
Inlin@@ 1
InputData 1
InputDialog 1
InputEvent 1
Insight@@ 1
Inspect@@ 1
Installed 1
IntegerType 1
Inten@@ 1
Interaction 1
InternalErrorException 1
Interpo@@ 1
Interrupted 1
Introspec@@ 1
Introspection@@ 1
Ints 1
Invo@@ 1
Is 1
IsActive 1
Issue 1
Issue@@ 1
Item_@@ 1
Iteration 1
Ix 1
JAX@@ 1
JCheckBox 1
JComboBox 1
JDB@@ 1
JDBC 1
JDK 1
JList 1
JMenuItem 1
JOB@@ 1
JOIN@@ 1
JUnit4@@ 1
JVM_@@ 1
JavaScript@@ 1
Jax@@ 1
Jdk@@ 1
Je@@ 1
JobContext 1
JsonElement 1
KED_@@ 1
KER@@ 1
KER_@@ 1
KI@@ 1
KILL_@@ 1
KIND 1
KING_@@ 1
KN@@ 1
KP@@ 1
Ka@@ 1
KeeperException 1
KeyStore@@ 1
KeyStroke 1
KeyType 1
Keyboard@@ 1
Keyclo@@ 1
Kine@@ 1
Known@@ 1
Kr@@ 1
Kw@@ 1
L1@@ 1
LAB 1
LABE@@ 1
LABEL_@@ 1
LAI@@ 1
LAP@@ 1
LAR 1
LAY 1
LB@@ 1
LEA@@ 1
LED@@ 1
LENGTH 1
LES_@@ 1
LIBR@@ 1
LIB_@@ 1
LIGHT 1
LINEAR 1
LITTLE_ENDIAN 1
LJ@@ 1
LL 1
LOAD_@@ 1
LOC@@ 1
LOCK_@@ 1
LOR@@ 1
LY_@@ 1
Lab@@ 1
Large 1
Lati@@ 1
Launch 1
Lazy 1
Ld@@ 1
Leading@@ 1
Lease@@ 1
LessThan@@ 1
Let 1
Lib@@ 1
Libs 1
Light 1
Lighting 1
Limited 1
Limited@@ 1
LinkedBlockingQueue 1
ListItem@@ 1
ListIterator 1
Little@@ 1
Loaded 1
Loads 1
Loc@@ 1
LocalFile 1
Locked@@ 1
LogRecord 1
Logout 1
LongBits 1
LookupTable 1
Lower 1
LowerBound 1
Lu@@ 1
Luc@@ 1
MAC@@ 1
MACHINE_@@ 1
MAIN_@@ 1
MANAG@@ 1
MAPP@@ 1
MARG@@ 1
MARKER 1
MARK_@@ 1
MAT@@ 1
MAX_SIZE 1
MAY 1
MA_@@ 1
MC 1
MD5_@@ 1
MEDI@@ 1
MEM@@ 1
MEMORY 1
MENU 1
MERCHAN@@ 1
MESSAGES 1
METHOD@@ 1
METRIC 1
ME_@@ 1
MH@@ 1
MICRO@@ 1
MIME 1
MIN 1
MINI@@ 1
MOB 1
MOBI@@ 1
MODIFICA@@ 1
MON@@ 1
MONITOR_@@ 1
MOVE_@@ 1
MOVI@@ 1
MSG 1
MT 1
MULTI_@@ 1
MXBean 1
MYSQL 1
Machine 1
Magic 1
Manual 1
Many 1
Mappers 1
Margin@@ 1
Margins 1
Marks 1
Masked 1
Mass 1
Materials 1
MathUtils 1
MaxLength 1
Mb@@ 1
Mem@@ 1
Memo@@ 1
Mesh@@ 1
MessageCodes 1
MessageFormat 1
MessageHandler 1
MessageListener 1
MessageTo@@ 1
MetaInterface 1
Meters 1
MethodCall 1
Middle 1
Mine@@ 1
Mini@@ 1
Minimum 1
Minute 1
Misc@@ 1
Mj@@ 1
Mob 1
Modal 1
Mode_@@ 1
Modifiers 1
Modify 1
Modify@@ 1
Modules 1
Mojo@@ 1
Money@@ 1
Months 1
Moun@@ 1
Moved@@ 1
Moves 1
Moving 1
Multi 1
Mute 1
MySQL 1
NAME@@ 1
NANO@@ 1
NC 1
NEG@@ 1
NEGATIVE_@@ 1
NEL 1
NER_@@ 1
NES 1
NETWORK_@@ 1
NEUTRAL 1
NEW_@@ 1
NEXT 1
NG 1
NG@@ 1
NI@@ 1
NIL 1
NN 1
NN@@ 1
NODE@@ 1
NOERROR 1
NON_@@ 1
NORMAL_@@ 1
NORTH 1
NOTIFY_@@ 1
NS_@@ 1
NT 1
NUMERIC 1
NUM_@@ 1
NY@@ 1
Nai@@ 1
NameNode 1
NameNode@@ 1
Named 1
Native 1
Nav 1
Navigator 1
Needed 1
NodeImpl 1
Nodes@@ 1
Nomin@@ 1
Nonce 1
Noop@@ 1
Nor@@ 1
Normalize@@ 1
NotSet 1
NotSupportedException 1
Notific@@ 1
Notify 1
Nt@@ 1
Nul@@ 1
Nullable@@ 1
NumberFormat 1
Nx@@ 1
OAuth 1
OBJECT@@ 1
OBS@@ 1
OCK 1
OCKET 1
OCKET_@@ 1
OGR@@ 1
OLD_@@ 1
ONCE 1
ONS_@@ 1
OP@@ 1
OPCODE 1
OPER@@ 1
OPTI@@ 1
OT@@ 1
OTH@@ 1
OTHER_@@ 1
OUTER 1
OV@@ 1
OVER 1
ObjectBase 1
ObjectName 1
Observation@@ 1
Occ@@ 1
Off 1
OnClose 1
OnFailure 1
OnScreen 1
Opening 1
OperationResult 1
Or 1
Ord 1
Ordered 1
Outcome@@ 1
Overflow 1
Overflow@@ 1
Overlapping@@ 1
Overlay@@ 1
Overridden 1
Overrides 1
Ow@@ 1
Ownership 1
PA 1
PAC@@ 1
PACK 1
PAGE 1
PAP@@ 1
PARSER 1
PART 1
PARTI@@ 1
PATTERN_@@ 1
PEM 1
PENDING 1
PER_@@ 1
PET 1
PH@@ 1
PIPE@@ 1
PITCH 1
PKCS@@ 1
PL 1
PO 1
POOL 1
POP 1
POPU@@ 1
POSITIVE_@@ 1
POST_@@ 1
POW@@ 1
POWER_@@ 1
PR 1
PREFER@@ 1
PREPAR@@ 1
PRESENT 1
PRESER@@ 1
PROGRESS_@@ 1
PROJECT 1
PROVI@@ 1
PT 1
PUBLIC 1
PUSH_@@ 1
PUT_@@ 1
PY@@ 1
PYTHON@@ 1
PYTHON_@@ 1
P_S@@ 1
Pack@@ 1
Pairs 1
Para@@ 1
Parallel 1
Parms 1
Parti@@ 1
Parts 1
Passive@@ 1
Paste@@ 1
PathParam 1
Pct 1
Percentage 1
Perf@@ 1
Perform@@ 1
Periodic 1
Permanent@@ 1
Pet 1
PhoneNumber 1
Phrase@@ 1
Pi 1
Picker 1
Picture 1
Picture@@ 1
Piece 1
Pixel 1
Playlist@@ 1
Plugins 1
Plural@@ 1
PointTo@@ 1
Points@@ 1
Pop 1
Popup 1
PopupMenu 1
Portal 1
Possible 1
Pow 1
Pow@@ 1
PowerOf@@ 1
Practi@@ 1
Predicate@@ 1
Prefix@@ 1
Prepare 1
Pres@@ 1
Presence 1
Presenter@@ 1
Preserve@@ 1
Previous 1
PrimaryKey@@ 1
Private@@ 1
Privilege@@ 1
ProcessingException 1
Produ@@ 1
Produces 1
Programming@@ 1
Projection 1
Projection@@ 1
Propagation@@ 1
PropertySet 1
PropertyType 1
Prototype@@ 1
Provid@@ 1
Provide@@ 1
Providers 1
Provides 1
Proxies 1
PsiField 1
Ptr@@ 1
Pull 1
Pull@@ 1
Pur@@ 1
Px@@ 1
Python 1
QH@@ 1
QK@@ 1
QL 1
QNAME 1
QT@@ 1
QUOTE_@@ 1
QV@@ 1
Qo@@ 1
Qt@@ 1
Quads 1
Qualified 1
Qualified@@ 1
QualifiedName 1
Qualifier@@ 1
Quant@@ 1
Queries@@ 1
QueryBuilders 1
Quest@@ 1
Queued@@ 1
Quotes 1
R0@@ 1
RAM 1
RATE_@@ 1
RATI@@ 1
RB 1
RDF 1
READONLY 1
READY 1
RECEI@@ 1
RED_@@ 1
REGION 1
RELATI@@ 1
REPOR@@ 1
REPORT_@@ 1
REP_@@ 1
RESET 1
RESOUR@@ 1
RETRIES 1
RE_@@ 1
RICK@@ 1
ROLE 1
ROLE_@@ 1
RON@@ 1
ROUN@@ 1
ROUND 1
ROW_@@ 1
RR 1
RS 1
RSA_@@ 1
RULE 1
RUNTIME 1
RW@@ 1
RW_@@ 1
Ranges 1
Rank@@ 1
Rate@@ 1
Ratio@@ 1
Raw 1
Reaction@@ 1
Ready 1
Ready@@ 1
Receive 1
Recommend@@ 1
RecordWriter 1
Recorder 1
Recover@@ 1
Recovery@@ 1
Recy@@ 1
Reentran@@ 1
Refs 1
Regexp 1
RegionInfo 1
Relation@@ 1
Relationship 1
Relative 1
Remember 1
Render 1
Renew@@ 1
Repeated@@ 1
Reporting@@ 1
Repositories 1
RequestHandler 1
RequestType 1
Rer@@ 1
Resolved 1
ResourceManager 1
ResourceType 1
ResponseType 1
Restriction 1
Restriction@@ 1
Retriev@@ 1
Retro@@ 1
Retur@@ 1
Rever@@ 1
Rewrite 1
Rewrite@@ 1
Rg@@ 1
Rich@@ 1
Ring@@ 1
Roll 1
Rollback@@ 1
Room 1
RootElement 1
Rotation@@ 1
Round 1
Round@@ 1
S2 1
S3 1
SA@@ 1
SAMP@@ 1
SAMPLE_@@ 1
SAVE_@@ 1
SAXException 1
SC 1
SCOPE_@@ 1
SD 1
SED 1
SELECTION 1
SEND 1
SENT 1
SEQUENCE 1
SERVI@@ 1
SERVICES 1
SETTING_@@ 1
SHA@@ 1
SHADER 1
SHARED 1
SHUT@@ 1
SIMPLE_@@ 1
SING@@ 1
SIVE_@@ 1
SK@@ 1
SLOT 1
SL_@@ 1
SN@@ 1
SNAPSHO@@ 1
SOAP@@ 1
SOFT 1
SOUTH 1
SPAR@@ 1
SRC_@@ 1
STA@@ 1
STANDARD_@@ 1
STATE 1
STAT_@@ 1
STDOUT 1
STERE@@ 1
STER_@@ 1
STIC 1
STIC@@ 1
STORE_@@ 1
STRE@@ 1
STREAM@@ 1
STRING@@ 1
STROKE 1
STYLE 1
STime@@ 1
SUN@@ 1
SYNC_@@ 1
SYS 1
Same 1
Sampling@@ 1
Sand@@ 1
Sanity 1
Scan 1
Scopes 1
Secondary 1
Seconds@@ 1
Sections 1
SecureRandom 1
Selectable 1
Sending 1
Sending@@ 1
Sent 1
Sentence 1
Separate 1
Separators 1
Ser@@ 1
Serialize 1
Serialized@@ 1
ServerFactory 1
ServerSocket 1
SetUp 1
SetValue 1
Set_@@ 1
Sets 1
Sever@@ 1
Sha@@ 1
Shader 1
ShapeType 1
Sho@@ 1
ShortName 1
Shortcut@@ 1
ShouldBe@@ 1
Shr@@ 1
Shrink@@ 1
Si 1
Signed@@ 1
Sim 1
Similar@@ 1
SimpleType 1
Simpli@@ 1
Simulation@@ 1
Simulator 1
Sin 1
Sin@@ 1
Sing@@ 1
Singular@@ 1
Site 1
Sizer 1
Sk@@ 1
Skipped 1
Sliding@@ 1
Slow@@ 1
Smart 1
Smart@@ 1
Snapshot@@ 1
SocketException 1
Software@@ 1
Solutions 1
Some 1
Song@@ 1
SortedMap 1
Spacing 1
Speaker@@ 1
Specified 1
Specified@@ 1
Spell@@ 1
Splitter 1
Spo@@ 1
Spring 1
Sprite@@ 1
StackTrace@@ 1
Standalone@@ 1
StartPosition 1
Stati@@ 1
Station 1
StatusChanged 1
Statuses 1
Stdout 1
StoreException 1
Stored 1
Stores 1
Storm@@ 1
StreamInput 1
StreamReader 1
Stream_@@ 1
Stretch@@ 1
Strict 1
StringConverter 1
StringTokenizer 1
Strings@@ 1
StrokeWidth 1
Styled@@ 1
Subscribe@@ 1
Subset@@ 1
Substitu@@ 1
Suc@@ 1
Sunday 1
Sup@@ 1
Super 1
Swap@@ 1
SwingConstants 1
Sym@@ 1
Symbolic@@ 1
Synchronization 1
T00:00:00@@ 1
TAG@@ 1
TAGS 1
TAN@@ 1
TATION_@@ 1
TAr@@ 1
TCC@@ 1
TCH_@@ 1
TCP 1
TCP_@@ 1
TD@@ 1
TEM 1
TEMPLATE_@@ 1
TEST_S@@ 1
TEXT@@ 1
THIS 1
THRESH@@ 1
THRO@@ 1
THROW@@ 1
TH_@@ 1
TLS@@ 1
TOKEN@@ 1
TOK_@@ 1
TOOLTI@@ 1
TOS 1
TP@@ 1
TRACE_@@ 1
TRANSACTION 1
TRIBU@@ 1
TRIGGER_@@ 1
TRUN@@ 1
TRUNCATE 1
TRY@@ 1
TYPES_@@ 1
TYPE_STRING 1
T_ID_@@ 1
Ta@@ 1
Tabs 1
TagName 1
TearDown 1
Tel@@ 1
Temp 1
Tensor@@ 1
Terminated@@ 1
Test1 1
Test2 1
TestCase@@ 1
TestSupport 1
Tester 1
TextEditor 1
TextFile@@ 1
ThreadCount 1
ThreadLocal@@ 1
ThreadPool 1
Thread_@@ 1
Threaded 1
Thrift@@ 1
Throws@@ 1
Tick 1
TileMode 1
Tim 1
Timespan 1
ToRefresh@@ 1
ToStr 1
To_@@ 1
Toggle 1
TokenStream 1
Too 1
ToolTip 1
TopLevel@@ 1
Trace 1
Track 1
Transi@@ 1
Translate 1
Translator 1
Translator@@ 1
Traver@@ 1
Triangle@@ 1
Trivial 1
Tro@@ 1
Trunc@@ 1
Truncate 1
Ts@@ 1
Tv@@ 1
Twitter 1
Typ@@ 1
TypedArray 1
U16 1
U2@@ 1
UB@@ 1
UE@@ 1
ULONG 1
UML@@ 1
UNIQUE 1
UNKNOWN_@@ 1
UNREACH@@ 1
UNSUPPORTED 1
UPDA@@ 1
UPPER 1
UP_@@ 1
UR 1
UT 1
UUID@@ 1
Unchecked 1
Unexpec@@ 1
UniqueId 1
Universal@@ 1
Unlock@@ 1
Unpack@@ 1
Unpooled 1
Updates 1
Updating 1
Upload 1
Uploaded@@ 1
Upper 1
UserData@@ 1
UserID 1
Utility@@ 1
VAL 1
VAL@@ 1
VALID 1
VALIDAT@@ 1
VALUE@@ 1
VAR 1
VAR@@ 1
VARCHAR 1
VARIABLES 1
VARIABLE_@@ 1
VA_@@ 1
VB@@ 1
VC 1
VD@@ 1
VEL@@ 1
VELO@@ 1
VERTEX@@ 1
VER_@@ 1
VIEW_@@ 1
VIRTUAL_@@ 1
VISIBILITY_@@ 1
VM_@@ 1
VOLUME 1
VU@@ 1
Validated@@ 1
ValueError 1
ValueMap 1
Vector3@@ 1
Vector3f 1
Veto@@ 1
Vi@@ 1
ViewHolder 1
Vocab@@ 1
Vol@@ 1
Vs@@ 1
W5@@ 1
WAT@@ 1
WEST 1
WHI@@ 1
WII@@ 1
WIN 1
WIN32 1
WIN@@ 1
WINDOW@@ 1
WINDOW_@@ 1
WITH 1
WORK_@@ 1
WP 1
WRAP 1
WS@@ 1
WY@@ 1
Wait 1
WaitFor@@ 1
Wallet@@ 1
War@@ 1
Was 1
Watched@@ 1
Watcher 1
Wave@@ 1
Web 1
WebDriver@@ 1
Week 1
Well 1
While 1
White 1
Whitespace 1
Wi@@ 1
Widget@@ 1
Wildcard@@ 1
Will 1
Windows@@ 1
WithNo@@ 1
Within 1
Wor@@ 1
Workers 1
Workflow 1
WorkingDirectory 1
Wrap 1
Wrapped@@ 1
Write_@@ 1
Wrong@@ 1
Ws@@ 1
Wx@@ 1
X1 1
XContent 1
XHTML 1
XR@@ 1
XmlApplicationContext 1
XmlFile 1
XmlRootElement 1
Xn@@ 1
YA@@ 1
YE@@ 1
YELLOW 1
Y_S@@ 1
ZN@@ 1
ZO@@ 1
ZONE_@@ 1
Zap@@ 1
Zh@@ 1
ZooKeeper 1
_0 1
_1_ 1
_ID 1
_P@@ 1
_R@@ 1
_SA@@ 1
_SAMP@@ 1
_SAMPLE_@@ 1
_SCHE@@ 1
_SCHEMA 1
_SCRI@@ 1
_SCRO@@ 1
_SECTION_@@ 1
_SELECT_@@ 1
_SERI@@ 1
_SHIFT 1
_SIN@@ 1
_SOUR@@ 1
_SOURCE_@@ 1
_SPACE_@@ 1
_SRC_ALPHA 1
_SUCCESS 1
__name__ 1
_a 1
_d@@ 1
_get 1
_init 1
_next 1
_no@@ 1
_page 1
_set@@ 1
_start 1
_start@@ 1
a1" 1
a5 1
aValue 1
abcde@@ 1
abe@@ 1
able_@@ 1
ables 1
abstract 1
ac 1
accessible@@ 1
accessing 1
accountName 1
aced@@ 1
acing 1
acing@@ 1
acknowledge 1
act@@ 1
acted 1
activated 1
actu@@ 1
actually 1
addCommand 1
addElement 1
addError 1
addSeparator 1
add_@@ 1
administr@@ 1
ador@@ 1
adows 1
ads 1
ae@@ 1
af@@ 1
against 1
agger@@ 1
ags 1
ain 1
air 1
ajax 1
ala 1
algorithms 1
alle@@ 1
alloc 1
allocated 1
alone@@ 1
also 1
alternate 1
amazon@@ 1
ambiguous 1
amble 1
amodel 1
amond 1
amp@@ 1
ample_@@ 1
an_@@ 1
analytics 1
ancestors 1
android@@ 1
ange@@ 1
ani 1
anim@@ 1
ank 1
ann@@ 1
ano 1
ano@@ 1
anywhere 1
aper 1
apos 1
app_@@ 1
applications 1
appropriate 1
approval 1
apt 1
ara 1
arbitrary 1
archive@@ 1
ard 1
area 1
areas 1
arent 1
arg3 1
around 1
arri@@ 1
artist 1
asc@@ 1
ases 1
ason@@ 1
asons 1
assertIsSatisfied 1
assive@@ 1
assuming 1
aster 1
ating_@@ 1
ationType 1
ational 1
atory 1
attach 1
atten@@ 1
attrName 1
attrValue 1
atur@@ 1
ature 1
augh@@ 1
authorize 1
auti@@ 1
available_@@ 1
avel 1
aver 1
ay 1
ay@@ 1
b2@@ 1
ball 1
ball@@ 1
ban@@ 1
bar_@@ 1
basePath 1
baseUrl 1
basic 1
basic_@@ 1
bd 1
bd@@ 1
be_@@ 1
beam 1
bec@@ 1
belonging 1
ber_@@ 1
bes 1
bit@@ 1
bject@@ 1
bk@@ 1
bla@@ 1
blo@@ 1
blob@@ 1
blockSize 1
bodies 1
bold 1
bool 1
bou@@ 1
bow 1
bp@@ 1
brick@@ 1
brow@@ 1
bru@@ 1
bugs 1
business 1
business@@ 1
but@@ 1
bx 1
c3@@ 1
c4@@ 1
c5 1
c6 1
c8 1
canBe@@ 1
candi@@ 1
capabilities 1
capacity 1
captures 1
capturing 1
care 1
caret 1
cat 1
category@@ 1
cation 1
cc@@ 1
cd_@@ 1
ce_@@ 1
cept 1
chang@@ 1
checkFor@@ 1
checkPermission 1
checkpoints 1
checksum@@ 1
ches_@@ 1
choose_@@ 1
chunks 1
circle 1
circul@@ 1
cj 1
ck@@ 1
clamp@@ 1
classname 1
classpath 1
cle@@ 1
clean 1
click@@ 1
clientId 1
clipboard 1
cloning 1
closeQuietly 1
closing 1
clu@@ 1
cm@@ 1
coin@@ 1
collap@@ 1
collapse 1
columns@@ 1
coming 1
coming@@ 1
command_@@ 1
comment_@@ 1
committed 1
compareAndSet 1
comparing 1
compatibility 1
compilation 1
comple@@ 1
compose 1
compress 1
compress@@ 1
computed@@ 1
concatenate 1
concatenation 1
configurable 1
confirm@@ 1
confirm_@@ 1
confirmed 1
connected@@ 1
connection_info 1
connectivity 1
cons@@ 1
consistency 1
construct 1
construction 1
consul@@ 1
containing 1
contr@@ 1
convention 1
convertFrom@@ 1
cool@@ 1
correct_@@ 1
corrupt 1
countered 1
country@@ 1
cover@@ 1
covered@@ 1
cq@@ 1
crc32 1
createTemp@@ 1
createTempFile 1
createValue 1
credential 1
cron@@ 1
cru@@ 1
csd 1
csv 1
ctions 1
cull@@ 1
currency 1
current_@@ 1
cv@@ 1
cyan 1
d7@@ 1
d9@@ 1
dao 1
dark 1
dark@@ 1
data2 1
data_@@ 1
datasets 1
datetime 1
dc 1
dden 1
ddl 1
decoding 1
decorated 1
decrement@@ 1
dedBy 1
defined 1
deg@@ 1
delayed 1
delete_@@ 1
delta@@ 1
dependent 1
depending 1
deploy 1
deprecation 1
descendants 1
describe 1
deserialize@@ 1
destro@@ 1
detail_@@ 1
determine 1
dev 1
deviceName 1
dg@@ 1
dial@@ 1
did 1
didn 1
die 1
diff@@ 1
din 1
disconnect@@ 1
discovery 1
dispatch 1
dmg 1
dns 1
doi 1
doit 1
dom@@ 1
domains 1
done@@ 1
done_@@ 1
dont 1
doubleTo@@ 1
dr 1
drawPath 1
draw_@@ 1
dro@@ 1
dropped 1
dru@@ 1
dumb 1
dungeon 1
dy@@ 1
eType 1
earliest 1
easily 1
eb@@ 1
eci@@ 1
econ@@ 1
ed_@@ 1
editable 1
ei@@ 1
ek@@ 1
el_@@ 1
elapsed 1
elast@@ 1
ele@@ 1
elimin@@ 1
eliminate 1
eline@@ 1
else@@ 1
employe@@ 1
emu 1
encrypt 1
encrypted 1
endArray 1
endDate 1
end_@@ 1
endor 1
ene 1
ened 1
ener@@ 1
eness 1
eng 1
eng@@ 1
eno@@ 1
ens 1
ent_@@ 1
ential 1
ents 1
epsilon@@ 1
erci@@ 1
escap@@ 1
ess@@ 1
establish 1
establish@@ 1
eu 1
evaluates 1
every 1
ew 1
exactly 1
exam 1
examples 1
exceeds 1
executeCommand 1
expecting 1
explicitly 1
exploration 1
explorer 1
ext_@@ 1
extrac@@ 1
extract 1
f4j 1
fa 1
fab@@ 1
fac@@ 1
facebook 1
factor@@ 1
failover 1
fav@@ 1
feder@@ 1
fer@@ 1
ference_@@ 1
fetching 1
few 1
ffer@@ 1
fff 1
ffmpeg 1
fiable 1
fication 1
ficial 1
fielddata 1
fileId 1
fileSize 1
filename@@ 1
filepath 1
filtering 1
findView@@ 1
find_@@ 1
finding 1
fire 1
fireEvent 1
fit@@ 1
five 1
fix 1
flate@@ 1
flater 1
flatten@@ 1
fli@@ 1
floatValue 1
floating@@ 1
flowable 1
flu@@ 1
flushed 1
fold 1
follow 1
for_@@ 1
force 1
forever 1
fork 1
forward@@ 1
four 1
fps 1
fr 1
frag 1
fre@@ 1
fren@@ 1
freq 1
fro@@ 1
fu@@ 1
ful 1
fully@@ 1
functional 1
fw@@ 1
gather@@ 1
gd@@ 1
gemstone 1
gen 1
general@@ 1
generated 1
gest 1
getAccess@@ 1
getActual@@ 1
getAlias 1
getArg@@ 1
getArray 1
getBean 1
getBo@@ 1
getBundle 1
getCached@@ 1
getCanonical@@ 1
getChar@@ 1
getCheck@@ 1
getCollision@@ 1
getComponentType 1
getConstant@@ 1
getControl@@ 1
getDe@@ 1
getDetails 1
getDocument@@ 1
getDouble 1
getElements 1
getEmail 1
getEntities 1
getException@@ 1
getExecution@@ 1
getExtension 1
getFileStatus 1
getFlags 1
getFullName 1
getGame@@ 1
getInitial@@ 1
getKeyStroke 1
getLayout@@ 1
getLineNumber 1
getManager 1
getMethodName 1
getNamed@@ 1
getNextSibling 1
getOpcode 1
getOption@@ 1
getOrigin 1
getOut@@ 1
getOutput 1
getOwn@@ 1
getPointer 1
getProvider@@ 1
getResults 1
getRole@@ 1
getSchema@@ 1
getScript@@ 1
getStream@@ 1
getTableName 1
getTags 1
getTarget 1
getTo 1
getURL 1
getVirtualFile 1
gh 1
ght 1
ging 1
global 1
gn@@ 1
goes 1
gold 1
gpu@@ 1
grammar 1
gravity 1
gre@@ 1
gtest 1
guess@@ 1
guid 1
gw@@ 1
h2@@ 1
hadoop 1
halt 1
handleException 1
handling 1
har@@ 1
hard@@ 1
hasValue 1
haven 1
hd 1
hd@@ 1
he 1
heap 1
heavy 1
hel@@ 1
heuristic 1
hex@@ 1
hh@@ 1
highest 1
hil@@ 1
hood 1
hor@@ 1
however 1
hr@@ 1
hs@@ 1
httpRequest 1
httpd 1
hub@@ 1
ias 1
ibm 1
icon_@@ 1
ident 1
identified 1
identifier@@ 1
identify 1
ier 1
igh 1
ignore_@@ 1
ignored@@ 1
ile 1
illa@@ 1
im 1
imeter 1
immutable 1
implicit@@ 1
impossible 1
inData 1
inactive 1
incomplete 1
indent 1
indent@@ 1
inform 1
inform@@ 1
inge@@ 1
ingredi@@ 1
initializing 1
initially 1
ink 1
inner@@ 1
insertItem 1
inspection 1
inst 1
instances 1
instead 1
inte@@ 1
inted 1
integer@@ 1
integrity 1
inten@@ 1
interaction 1
intercep@@ 1
interfaces 1
intermediate 1
interp 1
into@@ 1
invalid_@@ 1
invert 1
invoice 1
invoked 1
invoking 1
involved 1
iom 1
ios@@ 1
ipe@@ 1
ipher@@ 1
iq@@ 1
iri@@ 1
isAdmin 1
isAlive 1
isArray 1
isAssign@@ 1
isCancelled 1
isDefault 1
isDone 1
isFile 1
isInterface 1
isLoggable 1
isNaN 1
iscsi 1
ise@@ 1
ising 1
itch 1
ities@@ 1
iv@@ 1
iv_@@ 1
ject 1
jet@@ 1
jh@@ 1
ji 1
jobs 1
jun@@ 1
junit 1
k1@@ 1
k_@@ 1
kar@@ 1
keep 1
km@@ 1
know 1
ks@@ 1
kt@@ 1
ky@@ 1
l_@@ 1
lab@@ 1
land 1
lar@@ 1
larger 1
launcher 1
lay 1
lc@@ 1
leav@@ 1
leave@@ 1
legal@@ 1
lement 1
level_@@ 1
lex@@ 1
lexical 1
ley@@ 1
lhs 1
libs 1
lies@@ 1
life 1
linalg 1
lineTo 1
ling 1
list2 1
listIterator 1
ll 1
ll_@@ 1
loadFrom@@ 1
loaders 1
locals 1
locate 1
log2 1
logLevel 1
logging 1
logy@@ 1
longer 1
looking 1
lose 1
lowest@@ 1
lucene 1
lx@@ 1
m3@@ 1
mActivity 1
mTab@@ 1
mTexture@@ 1
ma 1
made 1
mail 1
maintain 1
major 1
maker 1
managed 1
mandatory 1
mann 1
mapped 1
mappings 1
markdown 1
matched@@ 1
matrices 1
mature@@ 1
maxim@@ 1
maybe 1
mbean 1
me_@@ 1
media 1
mel@@ 1
men 1
ment_@@ 1
menu_@@ 1
merged 1
met 1
minecraft 1
minecraftforge 1
minimal 1
minor 1
miss 1
mist@@ 1
mk@@ 1
mo 1
mode@@ 1
modify 1
modules 1
moment 1
most 1
moun@@ 1
mpeg 1
multi 1
must_@@ 1
my_@@ 1
myp@@ 1
name1 1
name2 1
naming 1
nanoTime 1
navigator 1
nd@@ 1
necessary 1
ned@@ 1
needs@@ 1
neighbour@@ 1
neither 1
newHashSet 1
nextChar 1
nextNode 1
ni 1
nia 1
none@@ 1
nor 1
norm 1
notice 1
notifications 1
np@@ 1
nr 1
nt@@ 1
nullValue 1
null_@@ 1
nut@@ 1
nx@@ 1
o2@@ 1
obs 1
observ@@ 1
observe 1
oc@@ 1
oc_@@ 1
octet 1
ode@@ 1
of_@@ 1
often 1
ogr@@ 1
ology 1
omit@@ 1
onDraw 1
onNew@@ 1
ongs 1
only_@@ 1
ont_@@ 1
opa@@ 1
opo@@ 1
optimize@@ 1
orders 1
organization 1
ories 1
oriz@@ 1
osx 1
ot 1
ouch@@ 1
out_@@ 1
outs 1
outside 1
over 1
overlay 1
overriding 1
ovirt 1
owned 1
ownership 1
p1" 1
p4@@ 1
pC@@ 1
pD@@ 1
pI@@ 1
pU@@ 1
p_name 1
pager 1
panic 1
parseFrom 1
parti@@ 1
password_@@ 1
past@@ 1
patient 1
pause_@@ 1
payload@@ 1
pc 1
ped 1
pending 1
perfect 1
performing 1
picture 1
picture@@ 1
piece 1
pig 1
ping 1
pinpoint@@ 1
pixel@@ 1
pkcs@@ 1
place 1
plain 1
plate 1
playlist_@@ 1
ple@@ 1
plugin 1
ply@@ 1
points 1
pole 1
pong 1
poo@@ 1
portlet 1
poses 1
posting 1
pped 1
practi@@ 1
precedence 1
precision 1
predecessor 1
prep@@ 1
prepared 1
presence 1
present 1
pressure 1
prevent@@ 1
prior 1
privacy 1
probe@@ 1
proceed 1
processes 1
processors 1
produ@@ 1
produce 1
producing 1
production 1
progress_@@ 1
prompt 1
pu 1
published 1
pull 1
pulse@@ 1
pur@@ 1
purpose 1
pushed 1
pv 1
qg@@ 1
qp 1
quee@@ 1
querying 1
questions 1
quot 1
quote 1
r2@@ 1
rand@@ 1
rank 1
readBoolean 1
readFields 1
real_@@ 1
rease@@ 1
reasons 1
rebuild 1
receives 1
receiving 1
recipes 1
recognized 1
recorded 1
recre@@ 1
recreate 1
redi@@ 1
ree_@@ 1
refer 1
referenced@@ 1
reflect 1
registe@@ 1
reject@@ 1
rejected 1
relations 1
remain 1
renderer 1
reorder@@ 1
repeat 1
repeat@@ 1
replicated 1
report_@@ 1
reporting 1
represent@@ 1
requires_@@ 1
res_@@ 1
reserve@@ 1
resize 1
respa@@ 1
restart 1
restriction 1
reti@@ 1
retrieve@@ 1
retrieved 1
retrieving 1
returning 1
reverse@@ 1
rewind 1
rewrite 1
rg@@ 1
rhs 1
rl@@ 1
rm 1
rnd@@ 1
robolectric 1
robot@@ 1
roll 1
rolled 1
roo@@ 1
root_@@ 1
ror@@ 1
rp@@ 1
rq 1
rtu@@ 1
runTest 1
rv 1
ryp@@ 1
sBefore@@ 1
sBundle 1
sC@@ 1
sHandler 1
sRequest@@ 1
sS@@ 1
sService 1
sTable 1
sToRemove 1
s\ 1
sable 1
safe 1
sage 1
saml 1
sampleRate 1
sampler 1
sar 1
sav@@ 1
saved 1
saving 1
say 1
scenari@@ 1
schemas 1
sco@@ 1
scrolling 1
sdk 1
searching 1
secondary 1
seconds 1
section 1
secure 1
sen 1
send_@@ 1
sequence_@@ 1
series 1
served 1
serverId 1
server_url 1
servletContext 1
ses 1
sessionID 1
setActive@@ 1
setBackgroundColor 1
setBorder 1
setCheck@@ 1
setCount@@ 1
setEditable 1
setFillType 1
setFlags 1
setHas@@ 1
setHeight 1
setItem@@ 1
setLength 1
setMaximum 1
setNeeds@@ 1
setNext@@ 1
setPosition 1
setRange 1
setSize@@ 1
setTimeout 1
setTool@@ 1
setUniform@@ 1
setWidth 1
set_@@ 1
several 1
sh 1
shap@@ 1
shar@@ 1
share 1
shared 1
shell@@ 1
shift 1
shift@@ 1
shifted 1
ships 1
shortcut 1
should_@@ 1
show_@@ 1
shows 1
signup 1
sil@@ 1
similar 1
sing@@ 1
single_@@ 1
singletonMap 1
sis 1
sity@@ 1
size_@@ 1
sized 1
sk@@ 1
sleeping 1
sm_@@ 1
small 1
smoothing 1
software 1
solutions 1
son 1
spawn@@ 1
speed 1
speed@@ 1
spend@@ 1
spiri@@ 1
springframework 1
spy@@ 1
ssh 1
sso@@ 1
sson 1
stackSize 1
stamp 1
stance@@ 1
stand@@ 1
star 1
starter 1
starts@@ 1
states 1
stay 1
ste 1
step_@@ 1
stone 1
stopped 1
stors 1
strength 1
stri@@ 1
stripped 1
stro 1
stru@@ 1
structured 1
subject@@ 1
submit@@ 1
successor 1
successors 1
sufficient@@ 1
suggest@@ 1
sult@@ 1
supplied 1
support_@@ 1
suppress@@ 1
suppressed 1
surface 1
surve@@ 1
swap@@ 1
switch@@ 1
sym@@ 1
synapse 1
syntax 1
tableId 1
tag@@ 1
tal@@ 1
target_@@ 1
tb@@ 1
td 1
te_@@ 1
tect@@ 1
tedException 1
ted_@@ 1
tell 1
template_@@ 1
temporary@@ 1
terator 1
terminal@@ 1
terminals 1
terminated 1
tes@@ 1
testClass 1
testFile@@ 1
testInvalid@@ 1
testParse@@ 1
testRead@@ 1
testString 1
testsuite 1
the_@@ 1
their 1
theme_@@ 1
ther 1
thers 1
these 1
thing_@@ 1
throu@@ 1
through 1
tid 1
timeTo@@ 1
timed 1
tin 1
tiv@@ 1
tivity 1
tm 1
tm@@ 1
toDouble 1
toFloat 1
to_p@@ 1
toggle@@ 1
tok@@ 1
tokenize 1
tom 1
tom@@ 1
tools 1
totalCount 1
touch 1
tp@@ 1
tracer 1
track 1
tracked 1
tract 1
trial 1
trip 1
trou@@ 1
ttl 1
ture 1
turned 1
tv_@@ 1
twice 1
twitter@@ 1
type_@@ 1
uch@@ 1
ue 1
ued@@ 1
ular@@ 1
ularity 1
ulation@@ 1
uld_@@ 1
ult_@@ 1
uma 1
unavailable 1
unbind 1
unc@@ 1
unci@@ 1
und 1
und_@@ 1
underlying@@ 1
unge@@ 1
unix 1
unk 1
unload@@ 1
unrecognized 1
unsupported 1
unt@@ 1
until 1
unwrap@@ 1
upgrade 1
upnp 1
usages 1
username_@@ 1
usr 1
ut 1
utf8 1
utf8@@ 1
v10 1
v4@@ 1
v8@@ 1
value2 1
van@@ 1
various 1
vb@@ 1
vd@@ 1
vector_@@ 1
vel@@ 1
ventory 1
ver_@@ 1
verbose@@ 1
verified 1
verri@@ 1
vert 1
vertices@@ 1
very@@ 1
vh@@ 1
viation 1
vider@@ 1
viewport@@ 1
ving 1
viol@@ 1
vm@@ 1
volatile 1
vt 1
w3c 1
waitUntil@@ 1
walk 1
wall 1
wallet 1
ware 1
warning@@ 1
warnings 1
watch@@ 1
wave 1
wb@@ 1
websocket@@ 1
wee@@ 1
whe@@ 1
whether 1
whi@@ 1
which@@ 1
whose 1
wicket 1
width@@ 1
win32@@ 1
wn 1
worked 1
ws@@ 1
wt@@ 1
wx@@ 1
x86_64 1
xm 1
xmlns 1
xn 1
xn@@ 1
xslt 1
xy@@ 1
y0 1
y1 1
yi 1
yml 1
your@@ 1
ype 1
yper@@ 1
z0-9 1
zA 1
za@@ 1
zen 1
zig@@ 1
zm@@ 1
zo@@ 1
zoneId 1
zv@@ 1
zy@@ 1
zzle@@ 1
zzz 1
¦ 1
§ 1
¬ 1
° 1
²@@ 1
³@@ 1
µ@@ 1
· 1
¹ 1
¼ 1
Â@@ 1
Ç 1
É@@ 1
Ê 1
Ê@@ 1
× 1
Ü 1
é@@ 1
ë@@ 1
ì@@ 1
í 1
ñ@@ 1
ô@@ 1
÷ 1
ı@@ 1
٩@@ 1
۶@@ 1
๑ 1
๑@@ 1
– 1
┃ 1
◡ 1
あ@@ 1
い 1
て@@ 1
り@@ 1
れ@@ 1
を@@ 1
エ@@ 1
ク@@ 1
ザ@@ 1
プ@@ 1
ユ@@ 1
ラ@@ 1
ロ@@ 1
一@@ 1
一个@@ 1
中@@ 1
为@@ 1
义@@ 1
也@@ 1
于 1
从@@ 1
以 1
以@@ 1
会@@ 1
传@@ 1
位@@ 1
住 1
作@@ 1
佬@@ 1
使用@@ 1
保@@ 1
信息 1
免@@ 1
入@@ 1
公@@ 1
出@@ 1
击@@ 1
删@@ 1
功 1
务 1
動@@ 1
参@@ 1
台 1
各@@ 1
合 1
否 1
告 1
呐@@ 1
哦 1
商@@ 1
喂 1
喊@@ 1
团 1
在 1
地@@ 1
址@@ 1
块 1
坚@@ 1
報@@ 1
备@@ 1
天@@ 1
好 1
学 1
学@@ 1
完@@ 1
定@@ 1
实@@ 1
宫 1
对@@ 1
岛 1
已@@ 1
常 1
庆@@ 1
应@@ 1
店@@ 1
异@@ 1
弹@@ 1
当@@ 1
录 1
性@@ 1
情@@ 1
感@@ 1
成@@ 1
户 1
所@@ 1
执@@ 1
找@@ 1
投@@ 1
持@@ 1
提@@ 1
摸@@ 1
数 1
方@@ 1
日@@ 1
时 1
星 1
有@@ 1
服@@ 1
本 1
本@@ 1
权@@ 1
标@@ 1
栏 1
正@@ 1
毛@@ 1
气@@ 1
求@@ 1
没@@ 1
泡 1
注 1
消 1
点@@ 1
物@@ 1
现@@ 1
珠@@ 1
生 1
电@@ 1
的 1
直@@ 1
砖@@ 1
究@@ 1
线@@ 1
美@@ 1
者 1
者@@ 1
自@@ 1
触@@ 1
议@@ 1
讯@@ 1
语 1
象@@ 1
赛@@ 1
赠@@ 1
起@@ 1
车 1
载 1
载@@ 1
返@@ 1
这@@ 1
迷@@ 1
通@@ 1
邮@@ 1
都 1
都@@ 1
醒 1
镜@@ 1
限 1
除 1
集@@ 1
题@@ 1
飞@@ 1
魔@@ 1
